{"version":"1.0","truncation":null,"padding":{"strategy":"BatchLongest","direction":"Right","pad_to_multiple_of":null,"pad_id":0,"pad_type_id":0,"pad_token":"[PAD]"},"added_tokens":[{"id":0,"special":true,"content":"[UNK]","single_word":false,"lstrip":false,"rstrip":false,"normalized":false},{"id":1,"special":true,"content":"[SOS]","single_word":false,"lstrip":false,"rstrip":false,"normalized":false},{"id":2,"special":true,"content":"[EOS]","single_word":false,"lstrip":false,"rstrip":false,"normalized":false},{"id":3,"special":true,"content":"[PAD]","single_word":false,"lstrip":false,"rstrip":false,"normalized":false}],"normalizer":null,"pre_tokenizer":{"type":"Whitespace"},"post_processor":null,"decoder":null,"model":{"type":"BPE","dropout":null,"unk_token":"[UNK]","continuing_subword_prefix":null,"end_of_word_suffix":null,"fuse_unk":false,"vocab":{"[UNK]":0,"[SOS]":1,"[EOS]":2,"[PAD]":3,"\u0007":4,"\b":5,"\u001a":6,"!":7,"\"":8,"#":9,"$":10,"%":11,"&":12,"'":13,"(":14,")":15,"*":16,"+":17,",":18,"-":19,".":20,"/":21,"0":22,"1":23,"2":24,"3":25,"4":26,"5":27,"6":28,"7":29,"8":30,"9":31,":":32,";":33,"<":34,"=":35,">":36,"?":37,"@":38,"A":39,"B":40,"C":41,"D":42,"E":43,"F":44,"G":45,"H":46,"I":47,"J":48,"K":49,"L":50,"M":51,"N":52,"O":53,"P":54,"Q":55,"R":56,"S":57,"T":58,"U":59,"V":60,"W":61,"X":62,"Y":63,"Z":64,"[":65,"\\":66,"]":67,"^":68,"_":69,"`":70,"a":71,"b":72,"c":73,"d":74,"e":75,"f":76,"g":77,"h":78,"i":79,"j":80,"k":81,"l":82,"m":83,"n":84,"o":85,"p":86,"q":87,"r":88,"s":89,"t":90,"u":91,"v":92,"w":93,"x":94,"y":95,"z":96,"{":97,"|":98,"}":99,"~":100,"":101,"":102,"":103,"":104,"¡":105,"¥":106,"«":107,"¬":108,"­":109,"®":110,"°":111,"±":112,"²":113,"³":114,"µ":115,"¶":116,"·":117,"¹":118,"º":119,"»":120,"¼":121,"½":122,"À":123,"Á":124,"Â":125,"Æ":126,"Ç":127,"È":128,"É":129,"Ê":130,"Ì":131,"Í":132,"Î":133,"Ï":134,"Ð":135,"Ñ":136,"Ò":137,"Ó":138,"Ô":139,"Õ":140,"Ö":141,"×":142,"Ø":143,"Ú":144,"Û":145,"Ü":146,"Ý":147,"Þ":148,"ß":149,"à":150,"á":151,"â":152,"ã":153,"ä":154,"å":155,"æ":156,"ç":157,"è":158,"é":159,"ê":160,"ë":161,"í":162,"î":163,"ï":164,"ñ":165,"ò":166,"ó":167,"ô":168,"õ":169,"ö":170,"÷":171,"ø":172,"ú":173,"ü":174,"ý":175,"ā":176,"ą":177,"Ć":178,"ć":179,"č":180,"ē":181,"ę":182,"ğ":183,"ī":184,"İ":185,"ı":186,"ń":187,"ŕ":188,"ř":189,"ş":190,"š":191,"ū":192,"ž":193,"Ɛ":194,"ț":195,"ˈ":196,"˜":197,"˝":198,"̀":199,"́":200,"Α":201,"Κ":202,"Φ":203,"ά":204,"ή":205,"α":206,"β":207,"ε":208,"ζ":209,"η":210,"ι":211,"κ":212,"ν":213,"ο":214,"π":215,"ρ":216,"ς":217,"τ":218,"υ":219,"ό":220,"А":221,"К":222,"М":223,"С":224,"Т":225,"Х":226,"а":227,"б":228,"м":229,"о":230,"с":231,"Տ":232,"ա":233,"ե":234,"թ":235,"ի":236,"ն":237,"վ":238,"ւ":239,"ք":240,"،":241,"؛":242,"؜":243,"؟":244,"ء":245,"آ":246,"أ":247,"ؤ":248,"إ":249,"ئ":250,"ا":251,"ب":252,"ة":253,"ت":254,"ث":255,"ج":256,"ح":257,"خ":258,"د":259,"ذ":260,"ر":261,"ز":262,"س":263,"ش":264,"ص":265,"ض":266,"ط":267,"ظ":268,"ع":269,"غ":270,"ـ":271,"ف":272,"ق":273,"ك":274,"ل":275,"م":276,"ن":277,"ه":278,"و":279,"ى":280,"ي":281,"ً":282,"ٌ":283,"ٍ":284,"َ":285,"ُ":286,"ِ":287,"ّ":288,"ْ":289,"ٓ":290,"ٔ":291,"ٖ":292,"٠":293,"١":294,"٢":295,"٣":296,"٤":297,"٥":298,"٦":299,"٧":300,"٨":301,"٩":302,"٪":303,"٫":304,"٬":305,"ٰ":306,"ٱ":307,"پ":308,"چ":309,"ژ":310,"ڤ":311,"ک":312,"گ":313,"ھ":314,"ۀ":315,"ہ":316,"ۆ":317,"ی":318,"ێ":319,"۔":320,"ە":321,"ۖ":322,"ۚ":323,"۰":324,"۱":325,"۲":326,"۳":327,"۴":328,"۵":329,"۶":330,"۷":331,"۸":332,"۹":333,"ݢ":334,"ݣ":335,"ज":336,"र":337,"ा":338,"ि":339,"ḥ":340,"ṭ":341,"ῥ":342,"​":343,"‌":344,"‍":345,"‎":346,"‏":347,"‐":348,"‑":349,"–":350,"—":351,"‘":352,"’":353,"‚":354,"“":355,"”":356,"•":357,"…":358,"‪":359,"‫":360,"‬":361,"‭":362,"‮":363,"′":364,"″":365,"‹":366,"›":367,"⁃":368,"⁦":369,"⁧":370,"⁩":371,"⁭":372,"⁯":373,"€":374,"™":375,"⅓":376,"←":377,"→":378,"∆":379,"−":380,"≈":381,"⏰":382,"▄":383,"■":384,"□":385,"▪":386,"▫":387,"▬":388,"●":389,"☝":390,"♥":391,"♦":392,"⚽":393,"✊":394,"✌":395,"✍":396,"✓":397,"✔":398,"❌":399,"❤":400,"⬅":401,"⭐":402,"《":403,"》":404,"":405,"":406,"":407,"":408,"":409,"":410,"ﭗ":411,"ﭘ":412,"ﭙ":413,"ﭻ":414,"ﭼ":415,"ﭽ":416,"ﮊ":417,"ﮋ":418,"ﮎ":419,"ﮏ":420,"ﮐ":421,"ﮑ":422,"ﮒ":423,"ﮓ":424,"ﮔ":425,"ﮕ":426,"ﮥ":427,"ﯼ":428,"ﯽ":429,"ﯾ":430,"ﯿ":431,"ﴼ":432,"﴾":433,"﴿":434,"ﷲ":435,"️":436,"ﺁ":437,"ﺄ":438,"ﺆ":439,"ﺋ":440,"ﺌ":441,"ﺍ":442,"ﺎ":443,"ﺏ":444,"ﺐ":445,"ﺑ":446,"ﺒ":447,"ﺕ":448,"ﺖ":449,"ﺗ":450,"ﺘ":451,"ﺙ":452,"ﺚ":453,"ﺛ":454,"ﺜ":455,"ﺝ":456,"ﺞ":457,"ﺟ":458,"ﺠ":459,"ﺡ":460,"ﺢ":461,"ﺣ":462,"ﺤ":463,"ﺥ":464,"ﺦ":465,"ﺧ":466,"ﺨ":467,"ﺩ":468,"ﺪ":469,"ﺫ":470,"ﺬ":471,"ﺭ":472,"ﺮ":473,"ﺯ":474,"ﺰ":475,"ﺱ":476,"ﺲ":477,"ﺳ":478,"ﺴ":479,"ﺵ":480,"ﺶ":481,"ﺷ":482,"ﺸ":483,"ﺹ":484,"ﺺ":485,"ﺻ":486,"ﺼ":487,"ﺾ":488,"ﺿ":489,"ﻀ":490,"ﻁ":491,"ﻂ":492,"ﻃ":493,"ﻄ":494,"ﻅ":495,"ﻆ":496,"ﻇ":497,"ﻈ":498,"ﻉ":499,"ﻊ":500,"ﻋ":501,"ﻌ":502,"ﻍ":503,"ﻎ":504,"ﻏ":505,"ﻐ":506,"ﻑ":507,"ﻒ":508,"ﻓ":509,"ﻔ":510,"ﻕ":511,"ﻖ":512,"ﻗ":513,"ﻘ":514,"ﻙ":515,"ﻚ":516,"ﻛ":517,"ﻜ":518,"ﻝ":519,"ﻞ":520,"ﻟ":521,"ﻠ":522,"ﻡ":523,"ﻢ":524,"ﻣ":525,"ﻤ":526,"ﻥ":527,"ﻦ":528,"ﻧ":529,"ﻨ":530,"ﻩ":531,"ﻪ":532,"ﻫ":533,"ﻬ":534,"ﻭ":535,"ﻮ":536,"ﻯ":537,"ﻰ":538,"ﻱ":539,"ﻲ":540,"ﻳ":541,"ﻴ":542,"ﻹ":543,"ﻻ":544,"ﻼ":545,"﻿":546,"１":547,"２":548,"３":549,"４":550,"５":551,"６":552,"：":553,"�":554,"🇮":555,"🇷":556,"🇹":557,"🌟":558,"🌹":559,"🌺":560,"🎂":561,"🎥":562,"🏆":563,"🏻":564,"🏼":565,"🏽":566,"🏾":567,"🏿":568,"🐐":569,"👀":570,"👆":571,"👈":572,"👊":573,"👌":574,"💐":575,"💔":576,"💖":577,"💙":578,"💪":579,"📆":580,"📌":581,"📞":582,"📣":583,"🔥":584,"🔴":585,"🔵":586,"🔷":587,"🔸":588,"🔹":589,"🔻":590,"🖊":591,"🖌":592,"🗓":593,"😁":594,"😂":595,"😅":596,"😆":597,"😉":598,"😊":599,"😓":600,"😔":601,"😘":602,"😜":603,"😤":604,"🙈":605,"🙏":606,"🚜":607,"🚫":608,"🤔":609,"🤝":610,"🤣":611,"🤦":612,"🥇":613,"🥈":614,"🥉":615,"ان":616,"ای":617,"ار":618,"در":619,"از":620,"ست":621,"به":622,"می":623,"ند":624,"را":625,"ال":626,"ام":627,"ور":628,"ود":629,"بر":630,"با":631,"اد":632,"که":633,"است":634,"این":635,"رد":636,"لی":637,"های":638,"ری":639,"نی":640,"رو":641,"تی":642,"اه":643,"شد":644,"سی":645,"ها":646,"دی":647,"هم":648,"فت":649,"می‌":650,"ه‌":651,"بی":652,"تو":653,"ات":654,"شت":655,"اب":656,"کرد":657,"ران":658,"وی":659,"ون":660,"مان":661,"کن":662,"دو":663,"دا":664,"بود":665,"دار":666,"باز":667,"اس":668,"خو":669,"گر":670,"من":671,"آن":672,"مو":673,"ما":674,"‌های":675,"او":676,"زی":677,"یک":678,"ده":679,"برای":680,"زار":681,"تا":682,"لا":683,"انی":684,"سال":685,"گی":686,"کار":687,"هر":688,"تر":689,"اف":690,"پی":691,"جه":692,"‌ها":693,"داد":694,"یم":695,"نو":696,"شود":697,"اق":698,"اي":699,"کش":700,"مر":701,"گاه":702,"فر":703,"اخ":704,"خود":705,"مع":706,"ایران":707,"تیم":708,"اع":709,"شده":710,"اری":711,"گفت":712,"بازی":713,"شر":714,"ایی":715,"نا":716,"کی":717,"بار":718,"مح":719,"اند":720,"مس":721,"فی":722,"ول":723,"الی":724,"سر":725,"شی":726,"گذ":727,"گزار":728,"داشت":729,"کت":730,"قر":731,"عی":732,"مای":733,"مد":734,"روز":735,"کشور":736,"تص":737,"مین":738,"خواه":739,"سه":740,"اید":741,"نام":742,"مل":743,"اص":744,"اما":745,"بال":746,"نگ":747,"کند":748,"ته":749,"رس":750,"مت":751,"یا":752,"مي":753,"جام":754,"شان":755,"مه":756,"شک":757,"ارد":758,"نظ":759,"طر":760,"قی":761,"دست":762,"دان":763,"بان":764,"کنند":765,"ساز":766,"یر":767,"مج":768,"انه":769,"ادی":770,"قرار":771,"ورد":772,"دارد":773,"انت":774,"باید":775,"چه":776,"نه":777,"اح":778,"رین":779,"زش":780,"هی":781,"اج":782,"ه‌ای":783,"عه":784,"مق":785,"دول":786,"توان":787,"نیز":788,"اده":789,"به‌":790,"وری":791,"هست":792,"لو":793,"بخ":794,"فته":795,"شته":796,"قل":797,"اره":798,"ه‌های":799,"تم":800,"افز":801,"خی":802,"بت":803,"نده":804,"رسی":805,"شگاه":806,"له":807,"آم":808,"عد":809,"سو":810,"ملی":811,"خواهد":812,"اين":813,"حال":814,"اش":815,"خص":816,"صد":817,"می‌شود":818,"گزارش":819,"پیش":820,"کرده":821,"وت":822,"اخت":823,"هن":824,"تح":825,"شن":826,"دولت":827,"مش":828,"لام":829,"حض":830,"خا":831,"نیم":832,"دیگر":833,"مرد":834,"برا":835,"جود":836,"مدی":837,"باشد":838,"ولی":839,"وق":840,"ستان":841,"رف":842,"روی":843,"اسی":844,"وز":845,"تع":846,"بل":847,"امی":848,"عنو":849,"پای":850,"عنوان":851,"حضور":852,"کم":853,"قه":854,"مي‌":855,"ماه":856,"نمای":857,"باره":858,"جو":859,"دید":860,"نظر":861,"میلی":862,"اگر":863,"برگزار":864,"كه":865,"اقتص":866,"اض":867,"فع":868,"کو":869,"دور":870,"قاب":871,"کر":872,"بخش":873,"ید":874,"خت":875,"گان":876,"مص":877,"گل":878,"ورزش":879,"کا":880,"توس":881,"امه":882,"پس":883,"آنها":884,"راه":885,"ورت":886,"کس":887,"بین":888,"ئی":889,"وجود":890,"نین":891,"نامه":892,"اینکه":893,"لم":894,"مانی":895,"ادامه":896,"ين":897,"ارت":898,"شرکت":899,"نج":900,"گرد":901,"بد":902,"چنین":903,"ضو":904,"بازیکن":905,"شو":906,"هزار":907,"بازار":908,"ین":909,"ایش":910,"گذشته":911,"ترین":912,"انجام":913,"تن":914,"نیست":915,"گو":916,"توجه":917,"يد":918,"نق":919,"داشته":920,"چند":921,"بز":922,"دل":923,"ه‌اند":924,"شه":925,"اط":926,"امل":927,"ه‌ها":928,"بعد":929,"لیگ":930,"دن":931,"همه":932,"درصد":933,"دهد":934,"مورد":935,"تق":936,"صورت":937,"عر":938,"ائ":939,"درو":940,"پرد":941,"تولی":942,"ایت":943,"گرفت":944,"هستند":945,"نمی‌":946,"شکل":947,"مردم":948,"صن":949,"خبر":950,"طرح":951,"شم":952,"شهر":953,"قیم":954,"درباره":955,"فوت":956,"نس":957,"پر":958,"کنیم":959,"یکی":960,"تج":961,"علی":962,"خار":963,"بوده":964,"بسی":965,"لس":966,"طی":967,"الب":968,"گوی":969,"شرای":970,"قهر":971,"زیر":972,"‌ال":973,"ابق":974,"اعلام":975,"سازمان":976,"قط":977,"آی":978,"ضا":979,"يم":980,"کان":981,"تولید":982,"افزایش":983,"تهران":984,"بو":985,"کل":986,"استان":987,"نشان":988,"رفت":989,"شتر":990,"تما":991,"اول":992,"اشت":993,"ایج":994,"گیری":995,"بزر":996,"ره":997,"تواند":998,"گری":999,"دام":1000,"عل":1001,"همین":1002,"اظ":1003,"زمان":1004,"جی":1005,"فوتبال":1006,"لیل":1007,"قان":1008,"هایی":1009,"رخ":1010,"موضو":1011,"سن":1012,"رات":1013,"صل":1014,"20":1015,"حی":1016,"باشگاه":1017,"وا":1018,"فیلم":1019,"زمین":1020,"اعت":1021,"بانک":1022,"قیمت":1023,"نان":1024,"ير":1025,"گرو":1026,"مربی":1027,"مند":1028,"جای":1029,"شور":1030,"بات":1031,"سنا":1032,"دود":1033,"مرک":1034,"رقاب":1035,"سرمای":1036,"کردند":1037,"دیدار":1038,"جمه":1039,"سوی":1040,"موضوع":1041,"ني":1042,"شرایط":1043,"رئی":1044,"دارند":1045,"می‌کند":1046,"وارد":1047,"وص":1048,"‌و":1049,"همچنین":1050,"سازی":1051,"پا":1052,"باش":1053,"زد":1054,"ت‌های":1055,"روش":1056,"اشاره":1057,"بور":1058,"مط":1059,"نفت":1060,"افزود":1061,"‌هاي":1062,"فدر":1063,"پرو":1064,"جهانی":1065,"فصل":1066,"چهار":1067,"چی":1068,"مرا":1069,"فرا":1070,"دف":1071,"وزار":1072,"..":1073,"بي":1074,"وزارت":1075,"گرفته":1076,"قای":1077,"داده":1078,"جهان":1079,"خان":1080,"عت":1081,"آسی":1082,"تأ":1083,"وه":1084,"سین":1085,"آز":1086,"لف":1087,"رسید":1088,"آمد":1089,"میلیون":1090,"پایان":1091,"ادر":1092,"افت":1093,"رئیس":1094,"آمری":1095,"خصوص":1096,"اقتصادی":1097,"امروز":1098,"عمل":1099,"مث":1100,"استف":1101,"توانست":1102,"غی":1103,"مسئ":1104,"مهم":1105,"بزرگ":1106,"طور":1107,"فاق":1108,"کمی":1109,"بح":1110,"مالی":1111,"حق":1112,"نش":1113,"اسیون":1114,"جوان":1115,"مقاب":1116,"اتی":1117,"استفاده":1118,"دلیل":1119,"البته":1120,"کاری":1121,"فدراسیون":1122,"ایسنا":1123,"جا":1124,"برخی":1125,"زه":1126,"هیچ":1127,"صح":1128,"كرد":1129,"اران":1130,"اهش":1131,"داری":1132,"عیت":1133,"مجلس":1134,"گون":1135,"میز":1136,"دوم":1137,"مسابق":1138,"رای":1139,"سان":1140,"مشکل":1141,"اتفاق":1142,"قدر":1143,"منت":1144,"پاس":1145,"اقتصاد":1146,"ازه":1147,"تومان":1148,"پو":1149,"هفته":1150,"تلا":1151,"پرس":1152,"بیان":1153,"هار":1154,"یافت":1155,"شدن":1156,"نتی":1157,"شوند":1158,"کنم":1159,"لاح":1160,"گذاری":1161,"زند":1162,"کتاب":1163,"لامی":1164,"بسیار":1165,"اظهار":1166,"همان":1167,"واق":1168,"تمام":1169,"کاهش":1170,"بن":1171,"بودند":1172,"گران":1173,"خوبی":1174,"اک":1175,"لي":1176,"تش":1177,"هو":1178,"سي":1179,"برابر":1180,"مسابقات":1181,"ایر":1182,"انتخا":1183,"مقابل":1184,"توسعه":1185,"جدید":1186,"نسبت":1187,"حتی":1188,"تب":1189,"جمع":1190,"مست":1191,"وض":1192,"سخ":1193,"پولی":1194,"ساخت":1195,"صادر":1196,"رقابت":1197,"حس":1198,"بیشتر":1199,"تنها":1200,"ثر":1201,"بازیکنان":1202,"حوز":1203,"دم":1204,"ایجاد":1205,"قبل":1206,"اون":1207,"چون":1208,"پنج":1209,"محمد":1210,"اسلامی":1211,"ارو":1212,"نخ":1213,"قانون":1214,"موف":1215,"منط":1216,"برنامه":1217,"هنگ":1218,"گیرد":1219,"خواست":1220,"ژه":1221,"ضای":1222,"پرداخت":1223,"گروه":1224,"جل":1225,"خودرو":1226,"استقل":1227,"اور":1228,"حاض":1229,"يت":1230,"کنون":1231,"ازی":1232,"طه":1233,"کسب":1234,"دانشگاه":1235,"حالی":1236,"».":1237,"گفته":1238,"ضی":1239,"چرا":1240,"ندارد":1241,"میلیارد":1242,"ابت":1243,"نفر":1244,"مپ":1245,"دانش":1246,"براي":1247,"تلاش":1248,"داخ":1249,"خانه":1250,"حاضر":1251,"شب":1252,"شار":1253,"استقلال":1254,"آمریکا":1255,"غیر":1256,"میان":1257,"خیلی":1258,"ندی":1259,"نهاد":1260,"صنعت":1261,"شاه":1262,"آغ":1263,"کال":1264,"مخت":1265,"ترا":1266,"هنر":1267,"آقای":1268,"حدود":1269,"عات":1270,"می‌کنند":1271,"‌تر":1272,"ضر":1273,"اساس":1274,"ارز":1275,"اولی":1276,"مله":1277,"اطلا":1278,"تاری":1279,"خری":1280,"رفی":1281,"نز":1282,"زیادی":1283,"بری":1284,"افرا":1285,"برگزاری":1286,"اقدام":1287,"وزیر":1288,"ایرانی":1289,"00":1290,"آغاز":1291,"برد":1292,"دوره":1293,"کید":1294,"قب":1295,"تصمی":1296,"برخ":1297,"شناس":1298,"سته":1299,"مرح":1300,"نیاز":1301,"وان":1302,"دقی":1303,"تغی":1304,"توسط":1305,"این‌":1306,"رشد":1307,"نتیجه":1308,"دلار":1309,"گیر":1310,"نم":1311,"سم":1312,"دهند":1313,"خط":1314,"قهرمان":1315,"قهرمانی":1316,"امتی":1317,"انتق":1318,"خاطر":1319,"کردن":1320,"ونی":1321,"آینده":1322,"گذار":1323,"۲۰":1324,"نال":1325,"ايران":1326,"سیاست":1327,"حوزه":1328,"دي":1329,"نخست":1330,"مجمو":1331,"شما":1332,"مدیر":1333,"‌هایی":1334,"قرارداد":1335,"13":1336,"آل":1337,"هاي":1338,"بنا":1339,"فعالی":1340,"نوی":1341,"طرف":1342,"شکست":1343,"پول":1344,"طب":1345,"سل":1346,"شورای":1347,"طل":1348,"خوب":1349,"بی‌":1350,"جم":1351,"شنبه":1352,"جامعه":1353,"فروش":1354,"ریم":1355,"تور":1356,"روند":1357,"بیش":1358,"روزی":1359,"مذ":1360,"پذ":1361,"سرمایه":1362,"اصلاح":1363,"مدت":1364,"عث":1365,"تصمیم":1366,"كن":1367,"هنگی":1368,"ریف":1369,"پرسپولی":1370,"فرد":1371,"قابل":1372,"نرخ":1373,"فرهنگی":1374,"بورس":1375,"برتر":1376,"حمای":1377,"جان":1378,"معاون":1379,"سیاسی":1380,"انتخابات":1381,"خاب":1382,"کنار":1383,"عمو":1384,"سرمربی":1385,"مختلف":1386,"آمو":1387,"باشند":1388,"پاسخ":1389,"اجتما":1390,"بدون":1391,"فه":1392,"پي":1393,"تف":1394,"می‌توان":1395,"شا":1396,"برنام":1397,"پیدا":1398,"دنبال":1399,"ترکی":1400,"خواهند":1401,"ابع":1402,"فار":1403,"راق":1404,"شدند":1405,"پرسپولیس":1406,"باعث":1407,"جری":1408,"جمهوری":1409,"ارزش":1410,"جر":1411,"ندگان":1412,"انتخاب":1413,"دنی":1414,"گونه":1415,"ابقه":1416,"پور":1417,"نف":1418,"سط":1419,"لات":1420,"امتیاز":1421,"مرحله":1422,"حل":1423,"نمایش":1424,"اصلی":1425,"یاد":1426,"آزاد":1427,"کلی":1428,"مال":1429,"نشست":1430,"سود":1431,"اخیر":1432,"می‌دهد":1433,"بررسی":1434,"یس":1435,"لح":1436,"‌المل":1437,"می‌تواند":1438,"داریم":1439,"سا":1440,"ساله":1441,"مطرح":1442,"وب":1443,"المپ":1444,"ازم":1445,"آب":1446,"وم":1447,"پار":1448,"تجر":1449,"تعداد":1450,"بع":1451,"آخ":1452,"شش":1453,"می‌گوی":1454,"همراه":1455,"عا":1456,"فرهنگ":1457,"ارائ":1458,"نوز":1459,"حرف":1460,"ساس":1461,"صی":1462,"افق":1463,"آورد":1464,"آور":1465,"رئ":1466,"خارجی":1467,"شنو":1468,"واح":1469,"عود":1470,"یت":1471,"مشخص":1472,"انیم":1473,"مسی":1474,"حمایت":1475,"تاب":1476,"10":1477,"آسیا":1478,"منطقه":1479,"کمک":1480,"زمینه":1481,"موفق":1482,"هنوز":1483,"مانند":1484,"اجرا":1485,"تل":1486,"ندار":1487,"ارائه":1488,"پژ":1489,"ولان":1490,"کشتی":1491,"مرکزی":1492,"هدف":1493,"کسی":1494,"میت":1495,"بهترین":1496,"رژ":1497,"نقش":1498,"یع":1499,"فکر":1500,"\"،":1501,"دیگری":1502,"كار":1503,"زي":1504,"فران":1505,"نظام":1506,".»":1507,"جمله":1508,"آث":1509,"اختی":1510,"جوانان":1511,")،":1512,"صحبت":1513,"سپ":1514,"حالا":1515,"تری":1516,"جز":1517,"هزی":1518,"رک":1519,"گرم":1520,"رضا":1521,"مدیری":1522,"قلاب":1523,"جشنو":1524,"محص":1525,"نت":1526,"کننده":1527,"وضعیت":1528,"ستی":1529,"امیدو":1530,"رسد":1531,"زاده":1532,"اجتماعی":1533,"نبود":1534,"انقلاب":1535,"خوش":1536,"مقام":1537,"‌ترین":1538,"دری":1539,"فقط":1540,"ساعت":1541,"بین‌المل":1542,"مشکلات":1543,"هفت":1544,"جدی":1545,"پیروزی":1546,"»،":1547,"ثبت":1548,"مار":1549,"نگاه":1550,"روح":1551,"ویت":1552,"اولین":1553,"وقتی":1554,"واحد":1555,"افراد":1556,"لاف":1557,"خارج":1558,"برس":1559,"تغییر":1560,"شخص":1561,"ري":1562,"دین":1563,"کشورهای":1564,"امسال":1565,"کیلو":1566,"جوی":1567,"المپیک":1568,"سمت":1569,"منابع":1570,"بنی":1571,"گشت":1572,"محصول":1573,"نقل":1574,"یعنی":1575,"حا":1576,"...":1577,"رود":1578,"دریافت":1579,"مهر":1580,"آثار":1581,"بحث":1582,"تمرین":1583,"يک":1584,"انتظ":1585,"نید":1586,"دقیقه":1587,"دهم":1588,"ریق":1589,"خبرنگ":1590,"لازم":1591,"مرکز":1592,"امکان":1593,"ثیر":1594,"پژوه":1595,"يك":1596,"عمومی":1597,"زمانی":1598,"تاکید":1599,"شین":1600,"رییس":1601,"ویژه":1602,"بسیاری":1603,"نهایی":1604,"تجربه":1605,"اپ":1606,"تاریخ":1607,"گفت‌و":1608,"فعال":1609,"۱۳":1610,"اتر":1611,"قو":1612,"سوم":1613,"دفاع":1614,"جشنواره":1615,"امور":1616,"اکنون":1617,"پایی":1618,"رق":1619,"فرص":1620,"مناس":1621,"عرض":1622,"عامل":1623,"میزان":1624,"فعالیت":1625,"رسان":1626,"امیدوار":1627,"اوت":1628,"عملکرد":1629,"خاص":1630,"کرو":1631,"‌‌":1632,"ابط":1633,"بیشت":1634,"ماند":1635,"اشته":1636,"شرو":1637,"رانی":1638,"آمده":1639,"همکاری":1640,"سطح":1641,"چار":1642,"جلسه":1643,"کردیم":1644,"بک":1645,"باط":1646,"اجرای":1647,"مخ":1648,"۰۰":1649,"خرید":1650,"صر":1651,"مم":1652,"نهای":1653,"مربو":1654,"انگ":1655,"سرمایه‌":1656,"ماي":1657,"گردش":1658,"بین‌المللی":1659,"چنان":1660,"بودجه":1661,"سری":1662,"صادرات":1663,"پذیر":1664,"مدر":1665,"جنگ":1666,"رده":1667,"احتم":1668,"ایشان":1669,"ت‌":1670,"جد":1671,"جذ":1672,"کری":1673,"هستیم":1674,"کام":1675,"اختیار":1676,"گردان":1677,"منتشر":1678,"حر":1679,"نزدی":1680,"وار":1681,"راب":1682,"جریان":1683,"مسکن":1684,"زندگی":1685,"اثر":1686,"تک":1687,"وي":1688,"ایل":1689,"درآمد":1690,"اصل":1691,"شروع":1692,"نشده":1693,"مدیریت":1694,"سام":1695,"نداشت":1696,"ستر":1697,"خواهیم":1698,"تحریم":1699,"فنی":1700,"ائل":1701,"ورود":1702,"مدال":1703,"--":1704,"اروپا":1705,"متر":1706,"راست":1707,"شنا":1708,"موق":1709,"حف":1710,"دک":1711,"شاید":1712,"داشتند":1713,"عم":1714,"وزن":1715,"بهتر":1716,"امام":1717,"راهی":1718,"مسابقه":1719,"مادر":1720,"حقوق":1721,"مصرف":1722,"بنابر":1723,"هشت":1724,"دستگاه":1725,"جمهور":1726,"فا":1727,"رت":1728,"جنو":1729,"رسیده":1730,"بانی":1731,"‌ن":1732,"حسین":1733,"میدان":1734,"مثل":1735,"وقت":1736,"زشی":1737,"شاخ":1738,"غر":1739,"يا":1740,"دوست":1741,"دکتر":1742,"طول":1743,"داخلی":1744,"نیمه":1745,"سفر":1746,"مهدی":1747,"دیل":1748,"باشیم":1749,"سعی":1750,"اضاف":1751,"امید":1752,"کالا":1753,"بیر":1754,"تصوی":1755,"روسی":1756,"بخشی":1757,"میل":1758,"قا":1759,"انتظار":1760,"به‌عنوان":1761,"نهایت":1762,"کردم":1763,"مراسم":1764,"ریح":1765,"کشاور":1766,"ارتباط":1767,"قي":1768,"سهام":1769,"انتقال":1770,"روابط":1771,"ه‌اي":1772,"عضو":1773,"نمی":1774,"مز":1775,"15":1776,"صند":1777,"اري":1778,"مانده":1779,"ممکن":1780,"اطلاعات":1781,"طبق":1782,"ایع":1783,"‌آ":1784,"جاری":1785,"مطال":1786,"عرضه":1787,"چین":1788,"سای":1789,"مربوط":1790,"اخته":1791,"رئال":1792,"کیلوگرم":1793,"وال":1794,"اسف":1795,"توانیم":1796,"گفت‌وگو":1797,"بنابراین":1798,"اجه":1799,"قدرت":1800,"گزی":1801,"حذ":1802,"طریق":1803,"گي":1804,"عرب":1805,"دروازه":1806,"ه‌هاي":1807,"نگی":1808,"رض":1809,"آمار":1810,"کرده‌اند":1811,"آیا":1812,"زبان":1813,"حدا":1814,"سخت":1815,"پیش‌":1816,"مسئولان":1817,"هد":1818,"بالا":1819,"ابی":1820,"آر":1821,"اضافه":1822,"حد":1823,"نوشت":1824,"مبار":1825,"کنندگان":1826,"مواجه":1827,"غال":1828,"تان":1829,"احتمال":1830,"داران":1831,"ذر":1832,"بینی":1833,"بودن":1834,"هواد":1835,"فری":1836,"اسلام":1837,"بايد":1838,"مایی":1839,"درست":1840,"لاق":1841,"کیل":1842,"ژاد":1843,"عراق":1844,"كشور":1845,"توافق":1846,"غل":1847,"نزدیک":1848,"تامین":1849,"نمایشگاه":1850,"خصوصی":1851,"زنی":1852,"منظ":1853,"مجموعه":1854,"فرصت":1855,"سهم":1856,"رام":1857,"امنی":1858,"داور":1859,"فول":1860,"مسائل":1861,"ستاد":1862,"بلکه":1863,"محدود":1864,"تبدیل":1865,"روسیه":1866,"آموزش":1867,"آخرین":1868,"یو":1869,"تسه":1870,"نوع":1871,"داش":1872,"باس":1873,"لوم":1874,"نیرو":1875,"مها":1876,"فضای":1877,"19":1878,"زن":1879,"رقم":1880,"پشت":1881,"دانست":1882,"شاهد":1883,"دمات":1884,"فرو":1885,"دای":1886,"يس":1887,"کمیته":1888,"اسپ":1889,"شهری":1890,"همی":1891,"بندی":1892,"ه‌ایم":1893,"صه":1894,"حریف":1895,"راي":1896,"کره":1897,"ايي":1898,"سید":1899,"بران":1900,"هیات":1901,"دنیا":1902,"سپاه":1903,"حساب":1904,"واقع":1905,"دادند":1906,"عدم":1907,"قهرمانان":1908,"نماینده":1909,"سایر":1910,"می‌گوید":1911,"جب":1912,"يه":1913,"اتح":1914,"انس":1915,"ضمن":1916,"خودش":1917,"دهیم":1918,"صندوق":1919,"کوت":1920,"ونا":1921,"مي‌شود":1922,"دوران":1923,"ابه":1924,"نویس":1925,"تعی":1926,"کمتر":1927,"کنید":1928,"قیق":1929,"براساس":1930,"شاخص":1931,"وین":1932,"خبرنگار":1933,"تعیین":1934,"هم‌":1935,"معتق":1936,"زان":1937,"زنان":1938,"دهی":1939,"واردات":1940,"دیم":1941,"توانند":1942,"دیده":1943,"صنایع":1944,"روحانی":1945,"اوه":1946,"معرفی":1947,"جایگاه":1948,"جایی":1949,"عالی":1950,"خانو":1951,"يل":1952,"روزهای":1953,"ستم":1954,"حسن":1955,"تحت":1956,"می‌کنم":1957,"كند":1958,"راح":1959,"کاران":1960,"جلو":1961,"سرمایه‌گذاری":1962,"ابد":1963,"بانکی":1964,"موجود":1965,"تخ":1966,"اعضای":1967,"دانشجوی":1968,"آن‌ها":1969,"مندان":1970,"حفظ":1971,"دولتی":1972,"سینما":1973,"ملت":1974,"علمی":1975,"خدمات":1976,"می‌رسد":1977,"قف":1978,"مسیر":1979,"مجموع":1980,"طلا":1981,"نيز":1982,"رسمی":1983,"سخن":1984,"گذاشت":1985,"الت":1986,"حه":1987,"پیشنهاد":1988,"ریاست":1989,"صعود":1990,"رم":1991,"شای":1992,"وند":1993,"محصولات":1994,"هزینه":1995,"انتشار":1996,"جذب":1997,"تسهی":1998,"دارم":1999,"هواداران":2000,"12":2001,"ورو":2002,"هوا":2003,"تي":2004,"همچنان":2005,"چیزی":2006,"می‌شوند":2007,"بگوی":2008,"30":2009,"کود":2010,"جهت":2011,"ترکیب":2012,"سف":2013,"خورد":2014,"الان":2015,"14":2016,"تاثیر":2017,"طبی":2018,"سال‌های":2019,"آماده":2020,"مینی":2021,"ستاره":2022,"زود":2023,"خوان":2024,"تجارت":2025,"شرق":2026,"گاز":2027,"شده‌اند":2028,"سابق":2029,"محل":2030,"فراهم":2031,"همیشه":2032,"ه‌ی":2033,"جن":2034,"کشاورزی":2035,"کارشناس":2036,"يان":2037,"ادل":2038,"‌جمهور":2039,"یافته":2040,"حرکت":2041,"مادرید":2042,"رابطه":2043,"‌الله":2044,"دبیر":2045,"نگه":2046,"مشتر":2047,"اردی":2048,"صف":2049,"می‌شد":2050,"بگیرد":2051,"ارزی":2052,"آنچه":2053,"صرف":2054,"داستان":2055,"کیفی":2056,"تول":2057,"مدا":2058,"بس":2059,"تهی":2060,"شع":2061,"سلی":2062,"ورزشگاه":2063,"ديگر":2064,"نباید":2065,"۱۰":2066,"وع":2067,"تئ":2068,"سرا":2069,"خیر":2070,"اصله":2071,"انرژ":2072,"ظرفی":2073,"جع":2074,"ادبی":2075,"شرکت‌های":2076,"ریزی":2077,"تشکیل":2078,"والی":2079,"بند":2080,"عربستان":2081,"بیشتری":2082,"کرونا":2083,"نمایندگان":2084,"جنوبی":2085,"صدی":2086,"فولاد":2087,"اختص":2088,"انو":2089,"شهرد":2090,"خش":2091,"رایی":2092,"شوی":2093,"اطلاع":2094,"ورزشی":2095,"‌طل":2096,"چشم":2097,"جدول":2098,"مود":2099,"شبکه":2100,"اختصاص":2101,"تصریح":2102,"می‌کنیم":2103,"چک":2104,"عهده":2105,"چیز":2106,"سیون":2107,"توپ":2108,"مدیران":2109,"نتایج":2110,"آذر":2111,"نای":2112,"وظ":2113,"ماری":2114,"مول":2115,"گیرند":2116,"نکت":2117,"آید":2118,"تیمش":2119,"قانونی":2120,"یک‌":2121,"حمل":2122,"دوباره":2123,"دع":2124,"خد":2125,"علاوه":2126,"انگلی":2127,"پژوهش":2128,"نظارت":2129,"مک":2130,"50":2131,"موسی":2132,"شاد":2133,"سب":2134,"انج":2135,"بازی‌های":2136,"مؤ":2137,"شعر":2138,"اصول":2139,"تاکنون":2140,"باقی":2141,"کنش":2142,"استاد":2143,"کامل":2144,"فشار":2145,"18":2146,"خدا":2147,"نخستین":2148,"مخال":2149,"برداری":2150,"تورم":2151,"بازگشت":2152,"مسئله":2153,"شرایطی":2154,"پرونده":2155,"پل":2156,"برسد":2157,"امر":2158,"عملی":2159,"بارسل":2160,"رساند":2161,"کتور":2162,"گرفتن":2163,"بست":2164,"حج":2165,"زده":2166,"صفر":2167,"شناسی":2168,"بش":2169,"موفقی":2170,"ي‌":2171,"اصلاح‌طل":2172,"16":2173,"هند":2174,"اعترا":2175,"رقابت‌های":2176,"ابتدا":2177,"درصدی":2178,"فارس":2179,"رفته":2180,"فس":2181,"خرد":2182,"گذشت":2183,"املات":2184,"کوتاه":2185,"انرژی":2186,"میه":2187,"چهارم":2188,"بارسلونا":2189,"عتی":2190,"تخص":2191,"تیمی":2192,"بين":2193,"نتوانست":2194,"غذ":2195,"ایتالی":2196,"تاریخی":2197,"اهدا":2198,"انتقاد":2199,"نداشته":2200,"ب‌":2201,"نخواهد":2202,"دانشجویان":2203,"ه‌ام":2204,"ترکیه":2205,"موجب":2206,"متف":2207,"اقدامات":2208,"صدر":2209,"پيش":2210,"برخورد":2211,"ضربه":2212,"مغ":2213,"امیر":2214,"والیبال":2215,"موس":2216,"ندارند":2217,"فینال":2218,"حذف":2219,"بهر":2220,"اعتبار":2221,"م‌":2222,"توضی":2223,"یار":2224,"علوم":2225,"برنامه‌":2226,"منظور":2227,"نکته":2228,"اجازه":2229,"تیب":2230,"داخل":2231,"اشتبا":2232,"جایزه":2233,"خور":2234,"تيم":2235,"درخواست":2236,"انجمن":2237,"مناط":2238,"پیام":2239,"اساسی":2240,"پوشان":2241,"رأ":2242,"اختلاف":2243,"‌شده":2244,"تیم‌های":2245,"مذاک":2246,"ه‌ي":2247,"سوال":2248,"توضیح":2249,"ه‌هایی":2250,"می‌توانند":2251,"قض":2252,"یون":2253,"احمدی":2254,"اعتم":2255,"یابد":2256,"139":2257,"مصاف":2258,"احمد":2259,"كت":2260,"نفتی":2261,"‌نژاد":2262,"نشد":2263,"اضی":2264,"گير":2265,"گاهی":2266,"مدیرعامل":2267,"حداقل":2268,"مناسب":2269,"وسی":2270,"قق":2271,"خبرگزاری":2272,"اهمیت":2273,"ویی":2274,"روس":2275,"دستور":2276,"ارسال":2277,"اصفه":2278,"تسهیلات":2279,"تأکید":2280,"صحنه":2281,"متو":2282,"تئاتر":2283,"شید":2284,"معاملات":2285,"فرانسه":2286,"چهر":2287,"هاش":2288,"روست":2289,"رشته":2290,"بهره‌":2291,"مجوز":2292,"مشار":2293,"لز":2294,"۱۹":2295,"امنیت":2296,"‌جمهوری":2297,"لای":2298,"می‌گیرد":2299,"معتقد":2300,"دادن":2301,"هي":2302,"خبری":2303,"برجام":2304,"موسیقی":2305,"آماد":2306,"پیگیری":2307,"ضع":2308,"علیه":2309,"مناطق":2310,"اجرایی":2311,"هستم":2312,"زیرا":2313,"گانی":2314,"فنا":2315,"شامل":2316,"مبارزه":2317,"‌سازی":2318,"بانک‌ها":2319,"چن":2320,"ترک":2321,"میرا":2322,"شف":2323,"آلمان":2324,"پایین":2325,"راف":2326,"مشک":2327,"رهبری":2328,"اوراق":2329,"ترتیب":2330,"آهن":2331,"اصلا":2332,"صاح":2333,"فیل":2334,"مدافع":2335,"دهه":2336,"ميلي":2337,"فاصله":2338,"آن‌":2339,"سالن":2340,"بودیم":2341,"آسیایی":2342,"مید":2343,"‌اش":2344,"داشتیم":2345,"رسیدن":2346,"سوری":2347,"تحقیق":2348,"می‌رود":2349,"بانوان":2350,"بودم":2351,"رون":2352,"ژاپ":2353,"برخور":2354,"مخا":2355,"دغ":2356,"ماده":2357,"قصد":2358,"17":2359,"200":2360,"ابر":2361,"اتحادی":2362,"پت":2363,"بعدی":2364,"ظاه":2365,"گست":2366,"سلام":2367,"بلند":2368,"دچار":2369,"زیاد":2370,"مشترک":2371,"کیفیت":2372,"هنری":2373,"تقاض":2374,"فوق":2375,"سپاهان":2376,"موارد":2377,"ان‌":2378,"محسو":2379,"کدام":2380,"کسانی":2381,"۱۵":2382,"نوشته":2383,"سایت":2384,"ثمر":2385,"پیشر":2386,"بحران":2387,"اعتماد":2388,"مذا":2389,"سه‌":2390,"پروژه":2391,"ترل":2392,"مبل":2393,"واکنش":2394,"تمرینات":2395,"پزش":2396,"لحاظ":2397,"استع":2398,"اشتغال":2399,"خرو":2400,"خواهم":2401,"جاد":2402,"پرداز":2403,"بیمه":2404,"شهی":2405,"مذاکرات":2406,"می‌کرد":2407,"منچ":2408,"نماي":2409,"تراکتور":2410,"ناد":2411,"اردو":2412,"شهرداری":2413,"بتواند":2414,"عهد":2415,"قطعا":2416,"متن":2417,"مقد":2418,"یك":2419,"انگی":2420,"کمیسیون":2421,"اله":2422,"شتی":2423,"قبال":2424,"گین":2425,"هزین":2426,"پاي":2427,"کادر":2428,"رفتار":2429,"خل":2430,"عرصه":2431,"گردشگری":2432,"حاشی":2433,"ریال":2434,"حز":2435,"کاملا":2436,"خام":2437,"کشورمان":2438,"واره":2439,"این‌که":2440,"نح":2441,"شیر":2442,"تصویب":2443,"سیم":2444,"ظرفیت":2445,"ماج":2446,"آمریک":2447,"11":2448,"هواپی":2449,"آنجا":2450,"بازر":2451,"تغیی":2452,"اصفهان":2453,"كنند":2454,"سپرد":2455,"ملي":2456,"آخر":2457,"مثبت":2458,"اعتراض":2459,"مقر":2460,"اتاق":2461,"میر":2462,"دعوت":2463,"رکورد":2464,"گردد":2465,"شیمی":2466,"صدا":2467,"پیش‌بینی":2468,"اتحادیه":2469,"مهاجم":2470,"عش":2471,"قطر":2472,"افتاد":2473,"مناف":2474,"هماه":2475,"معدن":2476,"اسپانی":2477,"کور":2478,"لاتی":2479,"میراث":2480,"عکس":2481,"حسی":2482,"جلس":2483,"في":2484,"شکر":2485,"باد":2486,"نمی‌شود":2487,"امیدوارم":2488,"ویل":2489,"هدایت":2490,"مشارکت":2491,"بسته":2492,"شمار":2493,"25":2494,"زام":2495,"مف":2496,"‌که":2497,"----":2498,"مواد":2499,"مجمع":2500,"افی":2501,"تأمین":2502,"سیستم":2503,"ظم":2504,"مون":2505,"برنامه‌های":2506,"ظر":2507,"عو":2508,"باری":2509,"صنعتی":2510,"انسان":2511,"سنگ":2512,"محسوب":2513,"دیروز":2514,"ژی":2515,"دومین":2516,"شخصی":2517,"لند":2518,"برق":2519,"موفقیت":2520,"کنترل":2521,"آنان":2522,"چال":2523,"قطع":2524,"ادبیات":2525,"تمامی":2526,"ابتدای":2527,"تس":2528,"سرد":2529,"آبی":2530,"احساس":2531,"سینمایی":2532,"پزشکی":2533,"علیرضا":2534,"گار":2535,"حمله":2536,"پیک":2537,"هاست":2538,"بهبود":2539,"خر":2540,"رع":2541,"چنين":2542,"سران":2543,"گستر":2544,"فهر":2545,"زو":2546,"پایانی":2547,"نمي‌":2548,"بزرگی":2549,"اداره":2550,"استاندارد":2551,"کارهای":2552,"فعلی":2553,"اها":2554,"ئت":2555,"شهید":2556,"ماتی":2557,"راحی":2558,"وست":2559,"الله":2560,"کشورها":2561,"حجم":2562,"گرا":2563,"آزادی":2564,"خاطرنشان":2565,"ظه":2566,"حسینی":2567,"۱۸":2568,"زستان":2569,"خطر":2570,"‌گیری":2571,"برود":2572,"دارای":2573,"مقاو":2574,"سپس":2575,"بالای":2576,"دخ":2577,"مدعی":2578,"روشن":2579,"عین":2580,"آنکه":2581,"اسي":2582,"اینتر":2583,"ندگی":2584,"تض":2585,"راحت":2586,"فناوری":2587,"رح":2588,"رال":2589,"مين":2590,"ايش":2591,"عبد":2592,"بهره":2593,"په":2594,"واقعی":2595,"برزی":2596,"طبیعی":2597,"آورده":2598,"خانواده":2599,"وس":2600,"متفاوت":2601,"ساوی":2602,"‌شان":2603,"ازدهم":2604,"رفع":2605,"مساله":2606,"گسترش":2607,"عي":2608,"بیت":2609,"توليد":2610,"محمود":2611,"اني":2612,"مستند":2613,"یورو":2614,"می‌دهند":2615,"۱۴":2616,"برتری":2617,"ایتد":2618,"گذاشته":2619,"همواره":2620,"فهرست":2621,"ایتالیا":2622,"قالب":2623,"پترو":2624,"تساوی":2625,"علت":2626,"مدرضا":2627,"ژاپن":2628,"۳۰":2629,"خارجه":2630,"خواند":2631,"حکم":2632,"سوریه":2633,"کوچک":2634,"شاگردان":2635,"دانند":2636,"۱۳۹":2637,"اهداف":2638,"مالیات":2639,"گام":2640,"جامع":2641,"نیروی":2642,"ساخته":2643,"رتبه":2644,"ویژ":2645,"ارات":2646,"متاسف":2647,"نار":2648,"40":2649,"خدمت":2650,"قوه":2651,"دفت":2652,"باور":2653,"تعطی":2654,"قد":2655,"وضع":2656,"قوانی":2657,"هسته‌ای":2658,"اندی":2659,"جمعه":2660,"اسب":2661,"فعالیت‌های":2662,"موقعیت":2663,"منجر":2664,"بهشت":2665,"منافع":2666,"مصو":2667,"حاصل":2668,"محمدی":2669,"خودشان":2670,"برند":2671,"سک":2672,"۱۲":2673,"شدت":2674,"نيست":2675,"برو":2676,"شانس":2677,"سینمای":2678,"گفتند":2679,"تون":2680,"پیشرفت":2681,"ابان":2682,"شویم":2683,"مشابه":2684,"كرده":2685,"تبری":2686,"برنامه‌ریزی":2687,"اورد":2688,"فض":2689,"پرست":2690,"نشود":2691,"قبول":2692,"تال":2693,"ونه":2694,"شفاف":2695,"مبلغ":2696,"رقابت‌ها":2697,"گردانی":2698,"ولو":2699,"نقد":2700,"واقعا":2701,"عباس":2702,"محرو":2703,"درخ":2704,"میزبان":2705,"سؤ":2706,"دفتر":2707,"سعید":2708,"متاسفانه":2709,"مندی":2710,"آوری":2711,"هنرمندان":2712,"دانم":2713,"هیچ‌":2714,"انگلیس":2715,"سد":2716,"خروج":2717,"رأی":2718,"محی":2719,"بیل":2720,"صاد":2721,"مسئولی":2722,"سیاست‌های":2723,"ماهه":2724,"قبلی":2725,"آیت":2726,"قوانین":2727,"نیروهای":2728,"مهند":2729,"تجاری":2730,"حزب":2731,"محمدرضا":2732,"گلزنی":2733,"خوزستان":2734,"۱۶":2735,"خرا":2736,"كل":2737,"سابقه":2738,"بخت":2739,"قضا":2740,"گذاران":2741,"برخوردار":2742,"مطل":2743,"جدا":2744,"ه‌اش":2745,"مبنی":2746,"مسل":2747,"رسانه":2748,"سهمیه":2749,"‌شدن":2750,"تیر":2751,"نوعی":2752,"روزنامه":2753,"پوش":2754,"ادث":2755,"هرچند":2756,"شماره":2757,"موافق":2758,"روي":2759,"لوب":2760,"ایم":2761,"مبا":2762,"ايسنا":2763,"وف":2764,"فردا":2765,"روزها":2766,"نامزد":2767,"آیند":2768,"نور":2769,"اوی":2770,"آسیب":2771,"درون":2772,"المل":2773,"مسئول":2774,"پدر":2775,"کشی":2776,"تد":2777,"چالش":2778,"پال":2779,"آمریکایی":2780,"بیشترین":2781,"می‌آید":2782,"صور":2783,"اشتباه":2784,"اولیه":2785,"شاع":2786,"ستانی":2787,"مذاکره":2788,"شدید":2789,"یز":2790,"برداشت":2791,"دانشجو":2792,"لیور":2793,"غان":2794,"مصدو":2795,"آمادگی":2796,"نکرده":2797,"پخش":2798,"بهمن":2799,"تاز":2800,"اینجا":2801,"رئیس‌جمهور":2802,"آق":2803,"منچست":2804,"چوب":2805,"بتوانیم":2806,"گرفتند":2807,"ساختمان":2808,"خته":2809,"چاپ":2810,"بایر":2811,"کارشناسان":2812,"منفی":2813,"خس":2814,"مخالف":2815,"علاق":2816,"90":2817,"ذوب":2818,"خودم":2819,"لغ":2820,"گز":2821,"علا":2822,"مدار":2823,"مشت":2824,"رعایت":2825,"مرز":2826,"بدهد":2827,"لیت":2828,"عدد":2829,"وح":2830,"افظ":2831,"رمان":2832,"مستقیم":2833,"فلس":2834,"سختی":2835,"تلوی":2836,"خرداد":2837,"گروهی":2838,"پتروشیمی":2839,"احمدی‌نژاد":2840,"پنال":2841,"کات":2842,"ماز":2843,"انسانی":2844,"وط":2845,"سؤال":2846,"پست":2847,"لسی":2848,"بدهی":2849,"عوامل":2850,"زین":2851,"ساختار":2852,"‌اند":2853,"طراحی":2854,"همچون":2855,"چگونه":2856,"‌کننده":2857,"بیرون":2858,"زاد":2859,"اجی":2860,"تقویت":2861,"مصاح":2862,"می‌د":2863,"پنالتی":2864,"سنج":2865,"زنج":2866,"لیورپول":2867,"استقبال":2868,"فساد":2869,"انید":2870,"وید":2871,"بارسا":2872,"اعتق":2873,"وقی":2874,"سامان":2875,"قاضی":2876,"دسته":2877,"تحول":2878,"معام":2879,"گذارد":2880,"۱۷":2881,"دیر":2882,"وام":2883,"اصلاح‌طلبان":2884,"مثلا":2885,"ارشاد":2886,"دادگاه":2887,"اینها":2888,"رنگ":2889,"انیه":2890,"تهیه":2891,"محور":2892,"طوری":2893,"متی":2894,"پرور":2895,"پایه":2896,"مجاز":2897,"نیو":2898,"ثبات":2899,"يي":2900,"مسو":2901,"خاصی":2902,"مهم‌ترین":2903,"تحلیل":2904,"دست‌":2905,"اته":2906,"برگزاري":2907,"شركت":2908,"نظامی":2909,"بیماری":2910,"مزد":2911,"متوسط":2912,"فرود":2913,"آرا":2914,"انص":2915,"غرب":2916,"تلویزی":2917,"حیه":2918,"مشاور":2919,"کرمان":2920,"تبر":2921,"بازي":2922,"ابزار":2923,"تحریم‌ها":2924,"60":2925,"بایرن":2926,"افزايش":2927,"آیت‌الله":2928,"دقیق":2929,"صبح":2930,"عدالت":2931,"حاشیه":2932,"مقای":2933,"22":2934,"ئو":2935,"هاشمی":2936,"منطق":2937,"مساف":2938,"اعمال":2939,"سرعت":2940,"مجد":2941,"دران":2942,"پنجم":2943,"تأثیر":2944,"یوون":2945,"كتاب":2946,"خوشحال":2947,"باتی":2948,"افرادی":2949,"اروپایی":2950,"مام":2951,"می‌کردند":2952,"چرخ":2953,"داشتم":2954,"رونال":2955,"سخنان":2956,"واگذار":2957,"راهن":2958,"جدیدی":2959,"سفی":2960,"برنده":2961,"چراکه":2962,"تحصی":2963,"درحالی":2964,"بسکت":2965,"کارت":2966,"حقوقی":2967,"ترامپ":2968,"‌‌‌‌":2969,"یوونتوس":2970,"چندان":2971,"سات":2972,"اردوی":2973,"ثابت":2974,"صال":2975,"چاق":2976,"۵۰":2977,"معظم":2978,"‌نامه":2979,"سامانه":2980,"سال‌ها":2981,"قت":2982,"حساس":2983,"تایی":2984,"ایند":2985,"نداریم":2986,"افتخار":2987,"جالب":2988,"نبوده":2989,"قيمت":2990,"ثری":2991,"کافی":2992,"توزی":2993,"ثی":2994,"برگشت":2995,"امضا":2996,"بسي":2997,"بعضی":2998,"ارزیابی":2999,"پاری":3000,"پاک":3001,"اصر":3002,"اگرچه":3003,"مقایسه":3004,"کارگردان":3005,"ماشین":3006,"نیک":3007,"دوستان":3008,"علم":3009,"گویی":3010,"نمی‌توان":3011,"استرا":3012,"تعریف":3013,"گفتم":3014,"كي":3015,"مهمی":3016,"مثال":3017,"تماشا":3018,"اتفاقات":3019,"ذکر":3020,"اهی":3021,"دش":3022,"رسانی":3023,"‌نام":3024,"دایی":3025,"اصلاحات":3026,"صاحب":3027,"اسفند":3028,"ناشی":3029,"‌گذاری":3030,"بارها":3031,"دارایی":3032,"پارس":3033,"بالاتر":3034,"دشو":3035,"شناخت":3036,"اسم":3037,"پروژ":3038,"گاه‌های":3039,"فارسی":3040,"رئيس":3041,"اتفاقی":3042,"چلسی":3043,"بالی":3044,"ناب":3045,"بتوانند":3046,"رویکرد":3047,"خي":3048,"جلوگیری":3049,"هاف":3050,"ذی":3051,"سریع":3052,"خیابان":3053,"کالاهای":3054,"لان":3055,"متوجه":3056,"زم":3057,"زدن":3058,"پن":3059,"محسن":3060,"80":3061,"نقطه":3062,"‌زاده":3063,"متأ":3064,"یکدیگر":3065,"تلف":3066,"کارگردانی":3067,"شهریور":3068,"قضائی":3069,"احترا":3070,"فیلم‌های":3071,"بگویم":3072,"اعتقاد":3073,"گا":3074,"گیریم":3075,"نکرد":3076,"بسکتبال":3077,"جمعیت":3078,"واس":3079,"رهبر":3080,"توجهی":3081,"میزبانی":3082,"مربیان":3083,"بيان":3084,"داوری":3085,"سازان":3086,"ششم":3087,"تقری":3088,"ابلا":3089,"راه‌":3090,"شرح":3091,"پلی":3092,"رسي":3093,"توزیع":3094,"آست":3095,"لغو":3096,"سالانه":3097,"مرداد":3098,"مرغ":3099,"هافبک":3100,"سایپا":3101,"نویسنده":3102,"مدير":3103,"سرپرست":3104,"اردیبهشت":3105,"بازرگانی":3106,"تکر":3107,"بیست":3108,"مدیره":3109,"رفتن":3110,"ایست":3111,"هماهنگی":3112,"نیستند":3113,"خبرنگاران":3114,"جدایی":3115,"سخنگ":3116,"تبلی":3117,"قول":3118,"آمر":3119,"وظی":3120,"سکه":3121,"مردان":3122,"به‌طور":3123,"سلامت":3124,"تعهد":3125,"تازه":3126,"‌ای":3127,"سبب":3128,"مئ":3129,"اندازه":3130,"اسپانیا":3131,"ارف":3132,"پذی":3133,"مرتب":3134,"داشتن":3135,"70":3136,"ودی":3137,"انتی":3138,"صدور":3139,"مونی":3140,"جاع":3141,"گيري":3142,"یابی":3143,"خیص":3144,"مصدومیت":3145,"واب":3146,"واحدهای":3147,"پیوست":3148,"قاچاق":3149,"۲۵":3150,"تحقق":3151,"مجازی":3152,"مصاحبه":3153,"ادار":3154,"افغان":3155,"تغییرات":3156,"آف":3157,"عزی":3158,"مالیاتی":3159,"چقدر":3160,"نشر":3161,"فره":3162,"دشمن":3163,"تبریز":3164,"زندان":3165,"فعالان":3166,"مطمئ":3167,"سازي":3168,"پرورش":3169,"جهاد":3170,"گن":3171,"بگیرند":3172,"اعزام":3173,"ریان":3174,"ایف":3175,"پرواز":3176,"غم":3177,"شراي":3178,"نداد":3179,"روبه‌":3180,"لذ":3181,"شرايط":3182,"محیط":3183,"راستای":3184,"21":3185,"همين":3186,"منتظر":3187,"مقامات":3188,"شي":3189,"توصی":3190,"تفاوت":3191,"تایید":3192,"سرخ":3193,"خودمان":3194,"معادل":3195,"یاران":3196,"می‌گویند":3197,"تدار":3198,"گانه":3199,"امارات":3200,"قره":3201,"رسیدگی":3202,"افتتا":3203,"تصور":3204,"رونالدو":3205,"تبلیغ":3206,"برنز":3207,"گزین":3208,"ایان":3209,"علاقه":3210,"پرسش":3211,"نگرانی":3212,"خات":3213,"امکانات":3214,"‌ملی":3215,"قز":3216,"ترد":3217,"24":3218,"رشت":3219,"عجی":3220,".\"":3221,"واقعیت":3222,"المللی":3223,"سوخت":3224,"نمی‌تواند":3225,"آیین":3226,"حرفه‌ای":3227,"تابستان":3228,"راتی":3229,"آبا":3230,"اندو":3231,"چارچوب":3232,"مسعود":3233,"شدم":3234,"هزینه‌های":3235,"زا":3236,"معاونت":3237,"مبت":3238,"غول":3239,"اين‌":3240,"احتمالا":3241,"نهادهای":3242,"نحوه":3243,"ابراز":3244,"حضرت":3245,"تقریبا":3246,"انع":3247,"ببی":3248,"موزه":3249,"بيشتر":3250,"همچنين":3251,"رویداد":3252,"حتما":3253,"بخش‌های":3254,"ورزشکاران":3255,"برزیل":3256,"داوران":3257,"اقتصادي":3258,"روف":3259,"قطعی":3260,"جبران":3261,"تحویل":3262,"100":3263,"مشهد":3264,"‌کردن":3265,"میانه":3266,"برگ":3267,"مرت":3268,"بهداشت":3269,"کارگران":3270,"سلط":3271,"مسجد":3272,"دفاعی":3273,"اولویت":3274,"خانواد":3275,"نص":3276,"23":3277,"تنظ":3278,"کشوری":3279,"الات":3280,"عقب":3281,"تمند":3282,"تدوین":3283,"آرژ":3284,"تولیدی":3285,"پرت":3286,"اغل":3287,"معمو":3288,"ریه":3289,"فکری":3290,"نگهبان":3291,"شعار":3292,"ایه":3293,"کز":3294,"حافظ":3295,"راج":3296,"عبور":3297,"تعاون":3298,"رسانه‌ها":3299,"تجه":3300,"تخصصی":3301,"نیازمند":3302,"باخت":3303,"درحال":3304,"فردی":3305,"عیف":3306,"مقابله":3307,"ممن":3308,"کنونی":3309,"سالی":3310,"خب":3311,"آبان":3312,"سند":3313,"موش":3314,"تفاه":3315,"یازدهم":3316,"شهرسازی":3317,"کف":3318,"دادیم":3319,"تروری":3320,"مؤس":3321,"برج":3322,"نیا":3323,"نیمکت":3324,"عبدال":3325,"متأسف":3326,"مصوبه":3327,"هیأ":3328,"تخلف":3329,"ویچ":3330,"ناک":3331,"انواع":3332,"بدی":3333,"مجید":3334,":«":3335,"تکرار":3336,"پیروز":3337,"ماجرا":3338,"همایش":3339,"مرگ":3340,"متوقف":3341,"دلایل":3342,"رکود":3343,"شخصیت":3344,"نمایی":3345,"قایق":3346,"وظیفه":3347,"شناسایی":3348,"نباشد":3349,"زیست":3350,"انتخابی":3351,"بنیاد":3352,"تقاضا":3353,"زدهم":3354,"کشید":3355,"آرژانتی":3356,"‌ماه":3357,"تصویر":3358,"معامله":3359,"ادت":3360,"عاده":3361,"افتاده":3362,"کمت":3363,"ميليون":3364,"مشکلی":3365,"ویروس":3366,"مانع":3367,"نگران":3368,"500":3369,"گوش":3370,"کاس":3371,"عصر":3372,"جواد":3373,"در‌":3374,"نوجوانان":3375,"ترجمه":3376,"سنگین":3377,"بیمار":3378,"ضعف":3379,"بایج":3380,"تخت":3381,"سومین":3382,"مجبور":3383,"نه‌":3384,"ویق":3385,"اصولگر":3386,"ریاست‌جمهوری":3387,"افغانستان":3388,"تدا":3389,"خانگی":3390,"آدم":3391,"لاک":3392,"اينکه":3393,"هیئت":3394,"ماس":3395,"آذربایج":3396,"عبار":3397,"متأسفانه":3398,"فجر":3399,"حذفی":3400,"بالایی":3401,"هری":3402,"شورا":3403,"بتوان":3404,"مرتبط":3405,"رفتند":3406,"بازارهای":3407,"خلی":3408,"مراج":3409,"انگیزه":3410,"۱۱":3411,"بشکه":3412,"اسناد":3413,"جاي":3414,"بله":3415,"گروه‌های":3416,"آستانه":3417,"هنرمند":3418,"زل":3419,"دانشجويان":3420,"سرماي":3421,"تمدید":3422,"نهادی":3423,"درمان":3424,"احترام":3425,"۲۰۰":3426,"فرور":3427,"توانایی":3428,"گري":3429,"برخي":3430,"صورتی":3431,"بابت":3432,"بلو":3433,"تمرکز":3434,"شمند":3435,"لاحی":3436,"خودروهای":3437,"به‌ویژه":3438,"هشتم":3439,"مطالبات":3440,"محاس":3441,"درس":3442,"نر":3443,"کشت":3444,"عال":3445,"یارانه":3446,"مخاطب":3447,"رسيد":3448,"عملیات":3449,"ندارم":3450,"می‌خواهد":3451,"نسل":3452,"تکلی":3453,"جبه":3454,"مقررات":3455,"رونق":3456,"تهدید":3457,"دینگی":3458,"لط":3459,"خالی":3460,"كر":3461,"عمده":3462,"نقدینگی":3463,"بنای":3464,"نفع":3465,"داري":3466,"آش":3467,"خواسته":3468,"ضرورت":3469,"مشاه":3470,"شنی":3471,"منص":3472,"پوشش":3473,"شری":3474,"ابلاغ":3475,"فروردین":3476,"آرس":3477,"تومانی":3478,"نفرات":3479,"سراسر":3480,"طرفی":3481,"درد":3482,"نژاد":3483,"استانی":3484,"لیست":3485,"نساجی":3486,"منتق":3487,"ادي":3488,"اهل":3489,"فیفا":3490,"جلسات":3491,"سخنگوی":3492,"تحقیقات":3493,"سنی":3494,"علاقه‌":3495,"سیس":3496,"مقاومت":3497,"آموزشی":3498,"ژیک":3499,"داده‌اند":3500,"هرچه":3501,"کانون":3502,"فاز":3503,"برعهده":3504,"جمعی":3505,"خراسان":3506,"خاک":3507,"مسئولیت":3508,"مراجعه":3509,"تاج":3510,"دغدغ":3511,"صلاحی":3512,"خلا":3513,"بتی":3514,"واگذاری":3515,"باشم":3516,"تمای":3517,"کم‌":3518,"تجهیز":3519,"پیکان":3520,"مقط":3521,"جانی":3522,"عمر":3523,"لال":3524,"سور":3525,"نزد":3526,"سقو":3527,"رز":3528,"روبه‌رو":3529,"‌طور":3530,"امیدواریم":3531,"رقی":3532,"سقوط":3533,"مراکز":3534,"اشک":3535,"قرمز":3536,"پز":3537,"یدی":3538,"پاد":3539,"تشخیص":3540,"تنظیم":3541,"درخصوص":3542,"مشغول":3543,"خانم":3544,"داشتی":3545,"نشین":3546,"دستی":3547,"تشکر":3548,"امد":3549,"نمونه":3550,"نگار":3551,"ضاع":3552,"سبک":3553,"سیر":3554,"ــ":3555,"اخر":3556,"طولانی":3557,"صفحه":3558,"کلان":3559,"چندین":3560,"کریمی":3561,"خوشبخت":3562,"لایحه":3563,"مونیخ":3564,"چهارشنبه":3565,"فل":3566,"عظ":3567,"برساند":3568,"سیل":3569,"استرات":3570,"راه‌اند":3571,"قرن":3572,"پژوهشی":3573,"شهرستان":3574,"شدیم":3575,"جزو":3576,"حداک":3577,"پدیده":3578,"موقع":3579,"ذهن":3580,"بگیریم":3581,"موک":3582,"عاش":3583,"همراهی":3584,"دستمزد":3585,"تعدادی":3586,"ویژگی":3587,"کمیل":3588,"زنده":3589,"راند":3590,"کاپی":3591,"قم":3592,"مالي":3593,"کودک":3594,"همزمان":3595,"خبرگزاري":3596,"کودکان":3597,"ديد":3598,"امشب":3599,"فضا":3600,"قلم":3601,"توانسته":3602,"پایگاه":3603,"ايجاد":3604,"آذربایجان":3605,"بیم":3606,"جریمه":3607,"معروف":3608,"اسما":3609,"قیه":3610,"شرکت‌ها":3611,"می‌توانیم":3612,"سوي":3613,"اسلامي":3614,"جواب":3615,"دليل":3616,"موسسه":3617,"تکلیف":3618,"محو":3619,"مناسبی":3620,"تعامل":3621,"خوشبختانه":3622,"مور":3623,"بچ":3624,"نقره":3625,"نمی‌کند":3626,"الکت":3627,"گسترده":3628,"مقدس":3629,"صرفا":3630,"يافت":3631,"قائ":3632,"می‌توانست":3633,"هيچ":3634,"چطور":3635,"راد":3636,"ملی‌":3637,"حادث":3638,"ظاهر":3639,"باغ":3640,"بگذار":3641,"همه‌":3642,"نقاط":3643,"ترم":3644,"متح":3645,"نظیر":3646,"گونه‌ای":3647,"بندر":3648,"قوی":3649,"اخبار":3650,"سپرده":3651,"دوشنبه":3652,"افزوده":3653,"چهره":3654,"بنده":3655,"کتی":3656,"نماد":3657,"ه‌بندی":3658,"بازیگر":3659,"فرودگاه":3660,"حکو":3661,"شناخته":3662,"باب":3663,"بدهند":3664,"اعد":3665,"آي":3666,"امت":3667,"رافی":3668,"نسخ":3669,"‌و‌":3670,"مجت":3671,"غربی":3672,"ایده":3673,"سکو":3674,"حجت":3675,"مخالفت":3676,"زودی":3677,"باطی":3678,"نشی":3679,"اتو":3680,"سردار":3681,"سیتی":3682,"ولا":3683,"یادآور":3684,"زمینی":3685,"‌هاست":3686,"حقیق":3687,"اتل":3688,"پیراهن":3689,"لباس":3690,"‌مان":3691,"بازیک":3692,"هنگام":3693,"تکو":3694,"موافقت":3695,"سعود":3696,"ادن":3697,"عید":3698,"‌پور":3699,"چپ":3700,"چیست":3701,"بازیکنی":3702,"مازن":3703,"انداز":3704,"عمد":3705,"برده":3706,"مصط":3707,"به‌صورت":3708,"هوایی":3709,"بده":3710,"پیمان":3711,"مشاهده":3712,"حص":3713,"کمیت":3714,"۴۰":3715,"فرنگی":3716,"رب":3717,"مگر":3718,"مدل":3719,"ضد":3720,"موضوعات":3721,"عجیب":3722,"92":3723,"بهتری":3724,"وزير":3725,"سع":3726,"موسوی":3727,"رفاه":3728,"کمبود":3729,"بردی":3730,"مخاط":3731,"دستگاه‌های":3732,"گزینه":3733,"کلا":3734,"بیاید":3735,"كان":3736,"شمال":3737,"روایت":3738,"ناصر":3739,"حالت":3740,"قدی":3741,"می‌بی":3742,"ونایتد":3743,"بالغ":3744,"لب":3745,"جشن":3746,"منچستری":3747,"كم":3748,"بروز":3749,"محقق":3750,"درستی":3751,"کالای":3752,"لحظه":3753,"جبهه":3754,"تکمیل":3755,"فرمانده":3756,"حمید":3757,"بنزین":3758,"آرسنال":3759,"وزنه":3760,"تماس":3761,"آس":3762,"پذیرش":3763,"ویم":3764,"خانوار":3765,"نظرم":3766,"افتتاح":3767,"معمولا":3768,"انگلیسی":3769,"رژیم":3770,"28":3771,"ابراه":3772,"جهاني":3773,"فتیم":3774,"متقاضی":3775,"انتخاباتی":3776,"خوانی":3777,"وله":3778,"محوطه":3779,"اوج":3780,"وجه":3781,"زح":3782,"تحریم‌های":3783,"--------":3784,"موری":3785,"بازدید":3786,"امنیتی":3787,"شوم":3788,"وزارتخانه":3789,"آزمون":3790,"ميليارد":3791,"نهم":3792,"منچستریونایتد":3793,"مسکو":3794,"شهرهای":3795,"زیرس":3796,"اعتباری":3797,"اشی":3798,"يني":3799,"شجاع":3800,"طلای":3801,"غلام":3802,"دستاورد":3803,"آقاي":3804,"‌هزار":3805,"قیمت‌ها":3806,"لفی":3807,"راستا":3808,"منتقل":3809,"عادل":3810,"یزد":3811,"جديد":3812,"کنان":3813,"فرانسوی":3814,"استادی":3815,"ضعیف":3816,"صلاحیت":3817,"شهروند":3818,"فوتبالی":3819,"آتی":3820,"واز":3821,"میلان":3822,"بپرداز":3823,"طرفداری":3824,"آرام":3825,"آسي":3826,"ارتباطات":3827,"لیون":3828,"رغم":3829,"خورده":3830,"آمدن":3831,"مرحوم":3832,"تورن":3833,"خلق":3834,"برخلاف":3835,"دینی":3836,"۲۲":3837,"میلادی":3838,"صادق":3839,"بدن":3840,"گلستان":3841,"ویه":3842,"مازندران":3843,"ادع":3844,"علی‌":3845,"اسماعی":3846,"مدتی":3847,"عربی":3848,"محترم":3849,"دانشگاهی":3850,"دهنده":3851,"درک":3852,"‌هايي":3853,"ایرنا":3854,"متهم":3855,"نقدی":3856,"سخنرانی":3857,"رضایت":3858,"هرگز":3859,"جانبه":3860,"شکایت":3861,"نوسان":3862,"موثر":3863,"‌بار":3864,"ارتش":3865,"سایه":3866,"گه":3867,"تماشاگران":3868,"الکترو":3869,"شوراي":3870,"سون":3871,"فوری":3872,"ریب":3873,"عب":3874,"راه‌اندازی":3875,"مطالعه":3876,"گش":3877,"فعلا":3878,"گمرک":3879,"کارشناسی":3880,"کاپیتان":3881,"مهمترین":3882,"کي":3883,"مات":3884,"دشوار":3885,"مراحل":3886,"تأی":3887,"اخی":3888,":\"":3889,"تز":3890,"شیوه":3891,"زایی":3892,"یکشنبه":3893,"مطالعات":3894,"ساي":3895,"اتمام":3896,"دستو":3897,"حو":3898,"معنای":3899,"هفتم":3900,"تای":3901,"26":3902,"طار":3903,"قسمت":3904,"مکان":3905,"يز":3906,"افتد":3907,"کرده‌ایم":3908,"طرح‌های":3909,"رضایی":3910,"گذاري":3911,"آگاه":3912,"سياست":3913,"اخراج":3914,"پزشک":3915,"سياسي":3916,"ایستاد":3917,"یونایتد":3918,"آتش":3919,"گره":3920,"كو":3921,"اداری":3922,"مجدد":3923,"يکي":3924,"خال":3925,"حادثه":3926,"اکران":3927,"تست":3928,"زاب":3929,"احت":3930,"حاکم":3931,"قادر":3932,"دیگران":3933,"نجی":3934,"۶۰":3935,"چینی":3936,"باشید":3937,"ساع":3938,"تالار":3939,"ارتی":3940,"نفره":3941,"نفو":3942,"بزند":3943,"27":3944,"حاج":3945,"هیأت":3946,"خواستار":3947,"دون":3948,"تیکو":3949,"ریسک":3950,"وده":3951,"رسانه‌های":3952,"فق":3953,"فرهاد":3954,"مستقل":3955,"خمینی":3956,"دلی":3957,"آژ":3958,"نياز":3959,"عض":3960,"موضع":3961,"درواز":3962,"آفری":3963,"عه‌":3964,"استعداد":3965,"فراموش":3966,"بهره‌برداری":3967,"سنتی":3968,"منطقه‌ای":3969,"کون":3970,"روستایی":3971,"نامه‌ای":3972,"تات":3973,"تلویزیون":3974,"ملل":3975,"اجرائی":3976,"تأیید":3977,"هایش":3978,"لیا":3979,"ارزشمند":3980,"صحبت‌های":3981,"دربار":3982,"استی":3983,"دسترسی":3984,"لالی":3985,"خاور":3986,"موتور":3987,"تولیدکنندگان":3988,"جه‌":3989,"هواپیما":3990,"مي‌کند":3991,"بهار":3992,"سوء":3993,"درگیر":3994,"راحتی":3995,"اخذ":3996,"خواهی":3997,"خلیج":3998,"می‌دانند":3999,"فرانس":4000,"بي‌":4001,"امتیازی":4002,"رقیب":4003,"وحد":4004,"گيرد":4005,"اظهارات":4006,"نظری":4007,"بسيار":4008,"سبز":4009,"کمپ":4010,"جنا":4011,"داعش":4012,"ژان":4013,"اقع":4014,"ادین":4015,"اخیرا":4016,"عادی":4017,"مطبو":4018,"محکو":4019,"ستگی":4020,"حقیقت":4021,"واری":4022,"دنیای":4023,"وري":4024,"دانش‌":4025,"مختلفی":4026,"ستار":4027,"تخری":4028,"حدی":4029,"اکبر":4030,"خون":4031,"زر":4032,"قضایی":4033,"گرایی":4034,"مصوب":4035,"موضوعی":4036,"راضی":4037,"بای":4038,"هتل":4039,"ه‌سازی":4040,"خلاف":4041,"بماند":4042,"خانه‌های":4043,"ظرف":4044,"میدانی":4045,"بیه":4046,"اخلاق":4047,"ابراهیم":4048,"كی":4049,"مخاطبان":4050,"اتری":4051,"تقدیر":4052,"غي":4053,"آشنا":4054,"سیاه":4055,"مذکور":4056,"وش":4057,"بيش":4058,"ه‌شده":4059,"مسوولان":4060,"اسيون":4061,"آرامش":4062,"اواخر":4063,"ورزشکار":4064,"شمالی":4065,"ترجی":4066,"لاری":4067,"کارنامه":4068,"ارشد":4069,"بازنشست":4070,"بانک‌های":4071,"قضائیه":4072,"برگزی":4073,"تنی":4074,"سقف":4075,"تام":4076,"اصولگرایان":4077,"اتهام":4078,"متعل":4079,"پیا":4080,"سرنوشت":4081,"شیوع":4082,"مردمی":4083,"تران":4084,"بهادار":4085,"دیپل":4086,"گیران":4087,"‌کنندگان":4088,"اتخا":4089,"تماش":4090,"جنوب":4091,"ماست":4092,"۱۰۰":4093,"برانکو":4094,"لهست":4095,"دبی":4096,"دوی":4097,"فن":4098,"بالاخ":4099,"مهندسی":4100,"هايي":4101,"اتخاذ":4102,"مسلمان":4103,"می‌گردد":4104,"عده‌ای":4105,"اوضاع":4106,"برطرف":4107,"تسلی":4108,"روبرو":4109,"محروم":4110,"ضرر":4111,"پايان":4112,"عام":4113,"معی":4114,"درآمدهای":4115,"شاعر":4116,"گند":4117,"مصطفی":4118,"تکواندو":4119,"نفوذ":4120,"می‌داند":4121,"معاصر":4122,"بنگاه":4123,"کیه":4124,"خواهان":4125,"می‌گیرند":4126,"دقت":4127,"محبو":4128,"عشق":4129,"کلاس":4130,"ارتقای":4131,"استادیوم":4132,"حکومت":4133,"چم":4134,"داو":4135,"متخص":4136,"داشته‌اند":4137,"لاس":4138,"غير":4139,"تعرف":4140,"ادعا":4141,"برز":4142,"احزاب":4143,"رفسنج":4144,"متعلق":4145,"حقی":4146,"شغل":4147,"بوده‌اند":4148,"ساد":4149,"تحولات":4150,"عملا":4151,"لاین":4152,"ژر":4153,"سرانجام":4154,"حما":4155,"دامی":4156,"نگاهی":4157,"هرگونه":4158,"روان":4159,"مشه":4160,"پیشین":4161,"بازیگران":4162,"وظایف":4163,"موند":4164,"مي‌گو":4165,"كردند":4166,"متخصص":4167,"دارو":4168,"۲۴":4169,"يع":4170,"ستا":4171,"اسرا":4172,"احی":4173,"وحدت":4174,"۲۱":4175,"سعودی":4176,"واسطه":4177,"بازی‌ها":4178,"پان":4179,"می‌برد":4180,"فتد":4181,"فدراسيون":4182,"لندن":4183,"صلح":4184,"شکده":4185,"پایتخت":4186,"محدودیت":4187,"نایب":4188,"تولد":4189,"۲۳":4190,"وابسته":4191,"ثرو":4192,"آزمای":4193,"اغلب":4194,"ضروری":4195,"قدم":4196,"پک":4197,"زیرساخت":4198,"دانی":4199,"خریداری":4200,"بالاخره":4201,"تسنیم":4202,"45":4203,"كش":4204,"قزاق":4205,"روزانه":4206,"اتلتیکو":4207,"اطمین":4208,"کی‌":4209,"مدیرکل":4210,"قبلا":4211,"بیمارستان":4212,"بادی":4213,"سوت":4214,"سمی":4215,"تقاضای":4216,"مي‌كند":4217,"کنيم":4218,"فيلم":4219,"فروشی":4220,"ژرمن":4221,"35":4222,"تصمیم‌گیری":4223,"مشکلاتی":4224,"دیدارهای":4225,"فیزی":4226,"امي":4227,"اشتیم":4228,"نداشتند":4229,"کارگزار":4230,"حداکثر":4231,"ولي":4232,"ولوژی":4233,"تجهیزات":4234,"صحن":4235,"امین":4236,"عص":4237,"رونمایی":4238,"این‌باره":4239,"بزرگسال":4240,"\".":4241,"درگذشت":4242,"دروی":4243,"‌رسانی":4244,"ابتدایی":4245,"لالیگا":4246,"دوستانه":4247,"بازیکنانی":4248,"زودتر":4249,"كنيم":4250,"پرداخته":4251,"فعاليت":4252,"اکثر":4253,"توی":4254,"می‌خواست":4255,"مصر":4256,"مبنای":4257,"قدرتمند":4258,"انتقالات":4259,"خطاب":4260,"اخلا":4261,"می‌خواهند":4262,"پنجشنبه":4263,"استراحت":4264,"شرط":4265,"پایدار":4266,"هنرهای":4267,"29":4268,"منطقی":4269,"صلاح":4270,"ه‌تر":4271,"جلب":4272,"رویس":4273,"شوت":4274,"درخشش":4275,"احدا":4276,"توانستند":4277,"بررسي":4278,"تخریب":4279,"تعهدات":4280,"قات":4281,"ارایه":4282,"عوض":4283,"مطابق":4284,"مي‌دهد":4285,"مفهو":4286,"مذه":4287,"صادراتی":4288,"لذا":4289,"مقطع":4290,"عبارت":4291,"دادم":4292,"دستورال":4293,"احداث":4294,"قضاوت":4295,"برقرار":4296,"اوتی":4297,"تصمیمات":4298,"دهمین":4299,"نفس":4300,"تنش":4301,"فرار":4302,"آبادان":4303,"سنت":4304,"قرآن":4305,"جذاب":4306,"مقدماتی":4307,"لر":4308,"لت":4309,"رسیتی":4310,"صنفی":4311,"دروازه‌":4312,"وو":4313,"روانی":4314,"96":4315,"باف":4316,"مانه":4317,"معتقدند":4318,"تمایل":4319,"نامه‌":4320,"لحظ":4321,"رسانه‌ای":4322,"قابل‌":4323,"هشد":4324,"سریال":4325,"نیمار":4326,"اجتماعي":4327,"الح":4328,"94":4329,"سراغ":4330,"اذ":4331,"لابی":4332,"دربی":4333,"همت":4334,"آرمان":4335,"جزئی":4336,"پوی":4337,"لین":4338,"صدای":4339,"توانستیم":4340,"هزارو":4341,"فاط":4342,"لبنان":4343,"کشف":4344,"معادن":4345,"داتی":4346,"گزارشی":4347,"مصلح":4348,"ایز":4349,"دائ":4350,"تداوم":4351,"گرفته‌اند":4352,"آلمانی":4353,"بلیت":4354,"ايد":4355,"غذایی":4356,"استرالیا":4357,"لق":4358,"العاده":4359,"نهام":4360,"ئیل":4361,"**":4362,"تکن":4363,"۷۰":4364,"كنون":4365,"ثانیه":4366,"تحصیل":4367,"آرژانتین":4368,"معدنی":4369,"جایگزین":4370,"زنگ":4371,"۸۰":4372,"زیبا":4373,"بردن":4374,"مواردی":4375,"وزنه‌":4376,"تاتنهام":4377,"این‌گونه":4378,"وانی":4379,"طي":4380,"امری":4381,"جلوی":4382,"اعط":4383,"گردشگران":4384,"انگیز":4385,"طراح":4386,"ضیه":4387,"نتي":4388,"300":4389,"138":4390,"طلب":4391,"حات":4392,"میانگین":4393,"يار":4394,"حیح":4395,"پری":4396,"هواپیمایی":4397,"بقیه":4398,"تورنمنت":4399,"کاتی":4400,"تمد":4401,"کارها":4402,"مطلوب":4403,"سفید":4404,"کنفرانس":4405,"حفاظ":4406,"رسیدند":4407,"مقرر":4408,"مطمئن":4409,"93":4410,"گوشت":4411,"گفتگو":4412,"تصمي":4413,"اتحاد":4414,"حمايت":4415,"ثبت‌نام":4416,"پیشنهادی":4417,"اونی":4418,"مي‌تواند":4419,"عارف":4420,"ضرب":4421,"رادی":4422,"ابعاد":4423,"لزوم":4424,"قدیمی":4425,"بازداشت":4426,"فارغ":4427,"جاست":4428,"تهیه‌":4429,"كا":4430,"حوزه‌های":4431,"هشدار":4432,"فراوان":4433,"کریم":4434,"دموک":4435,"ماهی":4436,"تعطیل":4437,"ازبک":4438,"برآورد":4439,"سرت":4440,"ببر":4441,"قزاقستان":4442,"سالگی":4443,"درجه":4444,"بازرگان":4445,"کتاب‌های":4446,"سرویس":4447,"امضای":4448,"فتح":4449,"قراردادهای":4450,"دستورالعمل":4451,"درگیری":4452,"پرا":4453,"آشن":4454,"کد":4455,"ادا":4456,"گال":4457,"بگذارد":4458,"اطمینان":4459,"رئیس‌جمهوری":4460,"ملک":4461,"خاط":4462,"همسر":4463,"آباد":4464,"حتي":4465,"نقاشی":4466,"رها":4467,"علي":4468,"مشمول":4469,"کای":4470,"پذیری":4471,"انق":4472,"زمي":4473,"‌بودن":4474,"لهستان":4475,"کرمانشاه":4476,"پروژه‌های":4477,"گهر":4478,"نمایشی":4479,"طلایی":4480,"ظریف":4481,"‌الاسلام":4482,"نکند":4483,"ستمی":4484,"جویی":4485,"مطلب":4486,"نوجوان":4487,"ونت":4488,"کجا":4489,"تشویق":4490,"تخصی":4491,"احتمالی":4492,"مشرو":4493,"توقف":4494,"گوید":4495,"نسخه":4496,"پسر":4497,"فرم":4498,"ه‌دار":4499,"سفار":4500,"وئ":4501,"قطعه":4502,"مهار":4503,"ماجرای":4504,"فرزند":4505,"گلی":4506,"کره‌":4507,"نظرات":4508,"احتی":4509,"مدنظر":4510,"يق":4511,"مغلوب":4512,"قیمتی":4513,"گذرد":4514,"احسان":4515,"تراکتورسازی":4516,"رسانده":4517,"اماتی":4518,"انض":4519,"مظ":4520,"مدیریتی":4521,"عملیاتی":4522,"جلال":4523,"معتقدم":4524,"بزرگترین":4525,"ورا":4526,"لاریجانی":4527,"اوپک":4528,"هماهنگ":4529,"فش":4530,"میلاد":4531,"تعاونی":4532,"خاورمیانه":4533,"فرایند":4534,"ه‌ترین":4535,"مرك":4536,"دقایق":4537,"نیکی":4538,"دانشگاه‌ها":4539,"95":4540,"شایسته":4541,"انصاری":4542,"دارید":4543,"زیان":4544,"بروند":4545,"مباح":4546,"پیشک":4547,"ایرانیان":4548,"ترجیح":4549,"حرفه":4550,"ناش":4551,"تبلیغات":4552,"بخواهد":4553,"ژن":4554,"دخالت":4555,"محرومیت":4556,"متحده":4557,"يكي":4558,"نرم":4559,"حجت‌الاسلام":4560,"كال":4561,"حریفان":4562,"بستر":4563,"عزیز":4564,"اکت":4565,"پذیرفت":4566,"ساده":4567,"جور":4568,"قطعات":4569,"قاس":4570,"تاري":4571,"مره":4572,"زائ":4573,"نشسته":4574,"تخصیص":4575,"ناو":4576,"افکار":4577,"رسول":4578,"برسیم":4579,"مرتضی":4580,"حامد":4581,"ناظر":4582,"خودروسازان":4583,"ائتلا":4584,"ت‌هایی":4585,"پرتغال":4586,"سلیمان":4587,"مقدار":4588,"بینند":4589,"منستان":4590,"ارستان":4591,"دیوان":4592,"روزه":4593,"تجدید":4594,"دلاری":4595,"موانع":4596,"طال":4597,"معتبر":4598,"بزرگ‌ترین":4599,"کاندید":4600,"تردید":4601,"کشیده":4602,"مربوطه":4603,"نمایندگی":4604,"مي‌توان":4605,"می‌یابد":4606,"هادی":4607,"تشکل":4608,"صالحی":4609,"ايع":4610,"حک":4611,"مشتریان":4612,"هات":4613,"چهارمین":4614,"محدودی":4615,"وک":4616,"بیانیه":4617,"تازگی":4618,"تبا":4619,"می‌کنید":4620,"ممنوع":4621,"باق":4622,"چرخه":4623,"به‌ای":4624,"حملات":4625,"صادقی":4626,"امیری":4627,"نصر":4628,"حداد":4629,"اوایل":4630,"بول":4631,"ذخیر":4632,"مدرسه":4633,"محلی":4634,"منع":4635,"98":4636,"موز":4637,"پاکستان":4638,"دختر":4639,"بدهیم":4640,"شیخ":4641,"می‌خواهیم":4642,"آمدی":4643,"سواری":4644,"برگرد":4645,"کیو":4646,"بین‌الملل":4647,"بهای":4648,"صهی":4649,"بزرگسالان":4650,"رامون":4651,"پروند":4652,"برادر":4653,"ببرد":4654,"آمدند":4655,"۹۰":4656,"کنی":4657,"همان‌طور":4658,"حقیقی":4659,"مقاومتی":4660,"سرزمین":4661,"کینگ":4662,"اطع":4663,"شاهین":4664,"خانه‌ها":4665,"سپری":4666,"ياد":4667,"مراجع":4668,"شهروندان":4669,"متناسب":4670,"تعطیلی":4671,"دیدن":4672,"رمض":4673,"حوادث":4674,"خسارت":4675,"400":4676,"معض":4677,"برون":4678,"‌آهن":4679,"كاهش":4680,"حامی":4681,"نجات":4682,"سه‌شنبه":4683,"اندر":4684,"اندا":4685,"اصلاح‌طلب":4686,"برداشته":4687,"مهم‌تر":4688,"منتخب":4689,"کی‌روش":4690,"رینی":4691,"آلو":4692,"مربیگری":4693,"وزی":4694,"عز":4695,"گردشگري":4696,"شیراز":4697,"تلویزیونی":4698,"پشتی":4699,"محتو":4700,"گندم":4701,"کاست":4702,"درحالی‌که":4703,"ناخ":4704,"فرهنگي":4705,"شهرها":4706,"اتي":4707,"مسایل":4708,"یه":4709,"‌‌‌‌‌‌‌‌":4710,"دریایی":4711,"فتی":4712,"جناح":4713,"کاروان":4714,"حضورش":4715,"فرآیند":4716,"استان‌ها":4717,"سفارش":4718,"معل":4719,"تولیدات":4720,"بافت":4721,"دیدم":4722,"دخت":4723,"کاد":4724,"منچسترسیتی":4725,"دروازه‌بان":4726,"متعدد":4727,"کمال":4728,"فوتسال":4729,"اخلاقی":4730,"اهالی":4731,"اصغر":4732,"یور":4733,"حساسی":4734,"طبقه":4735,"کالاها":4736,"فقر":4737,"معنی":4738,"ایتالیایی":4739,"کیلومتر":4740,"قلب":4741,"برسند":4742,"مسافر":4743,"ماسی":4744,"موج":4745,"مديريت":4746,"تربیت":4747,"سرو":4748,"ردی":4749,"شفافیت":4750,"مؤثر":4751,"‌تری":4752,"درج":4753,"پروی":4754,"ناشران":4755,"بایی":4756,"شاعران":4757,"بين‌المل":4758,"ونیست":4759,"نه‌تنها":4760,"عددی":4761,"راسی":4762,"آمريك":4763,"ميان":4764,"درخشان":4765,"گفت‌":4766,"چي":4767,"دستیابی":4768,"مجیدی":4769,"۵۰۰":4770,"هنی":4771,"مقصد":4772,"توصیه":4773,"مالکی":4774,"عمومي":4775,"کادرفنی":4776,"97":4777,"پیر":4778,"می‌داد":4779,"نگری":4780,"فلسط":4781,"اترین":4782,"کارخانه":4783,"اسد":4784,"پرتاب":4785,"جام‌":4786,"ازبکستان":4787,"اسامی":4788,"گرفتم":4789,"مدرن":4790,"گرفتیم":4791,"تار":4792,"گذر":4793,"حفاظت":4794,"تیم‌ها":4795,"پالای":4796,"2014":4797,"یمن":4798,"اقدامی":4799,"خاطرات":4800,"هویت":4801,"متوالی":4802,"لوی":4803,"منتقدان":4804,"دیداری":4805,"فرمان":4806,"موقت":4807,"نوبت":4808,"تیم‌":4809,"بهداشتی":4810,"هم‌اکنون":4811,"رن":4812,"آقا":4813,"ارتقا":4814,"بیفتد":4815,"ناف":4816,"دورت":4817,"‌بر":4818,"دغدغه":4819,"چو":4820,"‌حاضر":4821,"پیوند":4822,"ماندن":4823,"ايت":4824,"نصی":4825,"تقسیم":4826,"صهیونیست":4827,"سالم":4828,"ساح":4829,"کتابخانه":4830,"نویسی":4831,"لیونل":4832,"سهامداران":4833,"فرابورس":4834,"سفارت":4835,"آقایان":4836,"صنايع":4837,"مبادل":4838,"نویی":4839,"ديگري":4840,"اطلاعاتی":4841,"موسسات":4842,"سبد":4843,"ساماندهی":4844,"چش":4845,"زهرا":4846,"انداخت":4847,"نوین":4848,"مسؤ":4849,"می‌روند":4850,"رييس":4851,"امن":4852,"اك":4853,"راک":4854,"خوشحالم":4855,"ماه‌های":4856,"شرقی":4857,"بهانه":4858,"اموال":4859,"رضوی":4860,"هلند":4861,"وقوع":4862,"جست":4863,"علاقه‌مندان":4864,"بیاور":4865,"می‌گویم":4866,"بنیان":4867,"هل":4868,"ايراني":4869,"سرمایه‌گذاران":4870,"معنا":4871,"مؤسسه":4872,"اجراي":4873,"تدبیر":4874,"برزیلی":4875,"کارکنان":4876,"افل":4877,"دوو":4878,"‌ساز":4879,"تلخ":4880,"ظاهرا":4881,"آگاهی":4882,"کارلو":4883,"فراز":4884,"خاتمی":4885,"معلوم":4886,"بازسازی":4887,"عرف":4888,"88":4889,"می‌زند":4890,"مرور":4891,"صو":4892,"مقدم":4893,"قاسم":4894,"فوق‌ال":4895,"مورینیو":4896,"خارجي":4897,"می‌كند":4898,"ميزان":4899,"فرش":4900,"دیدگاه":4901,"آژانس":4902,"رقابتی":4903,"بط":4904,"ابهام":4905,"ادعای":4906,"اضع":4907,"وحید":4908,"نداده":4909,"ابي":4910,"قرا":4911,"وردی":4912,"اطلاعی":4913,"گمان":4914,"وریت":4915,"صداوسی":4916,"می‌خواهم":4917,"صحیح":4918,"گل‌":4919,"ظرفیت‌های":4920,"روحیه":4921,"ملاق":4922,"ایام":4923,"زلز":4924,"برنج":4925,"انتظامی":4926,"جعفری":4927,"به‌دلیل":4928,"اسکو":4929,"عان":4930,"کاري":4931,"‌م":4932,"انتشارات":4933,"می‌پرداز":4934,"ائتلاف":4935,"سار":4936,"اطلاع‌رسانی":4937,"مب":4938,"جنبه":4939,"حمی":4940,"مأ":4941,"گاری":4942,"اعتبارات":4943,"بوشهر":4944,"مفهوم":4945,"بوکس":4946,"75":4947,"کشتی‌":4948,"ذخ":4949,"موظ":4950,"مالک":4951,"پروانه":4952,"تفاهم":4953,"بستگی":4954,"نیستم":4955,"۲۰۱۸":4956,"قراردادی":4957,"2016":4958,"اظهارنظر":4959,"‌ام":4960,"مهاج":4961,"۲۶":4962,"کمترین":4963,"فو":4964,"31":4965,"تك":4966,"زمينه":4967,"نیازهای":4968,"تدری":4969,"مناسبت":4970,"خواب":4971,"جنج":4972,"محق":4973,"محاسبه":4974,"عمی":4975,"زانه":4976,"تبریک":4977,"مسلح":4978,"آسان":4979,"پنه":4980,"روستا":4981,"بالاترین":4982,"موظف":4983,"توجی":4984,"اسپانیایی":4985,"قاره":4986,"پرده":4987,"نادی":4988,"يح":4989,"باشگاه‌های":4990,"وعده":4991,"زمين":4992,"باشگاهی":4993,"تعوی":4994,"رنج":4995,"مباحث":4996,"ظمی":4997,"پيدا":4998,"اينكه":4999,"رئیسی":5000,"پیرامون":5001,"ورک":5002,"هندبال":5003,"زرد":5004,"پینگ":5005,"مکانی":5006,"تنگ":5007,"کوچ":5008,"سنگی":5009,"ویژه‌ای":5010,"ببینیم":5011,"رداد":5012,"تعلق":5013,"فهم":5014,"دورتموند":5015,"قص":5016,"زیدان":5017,"همانند":5018,"خداحافظ":5019,"ملاح":5020,"پنج‌":5021,"ناز":5022,"مخالفان":5023,"نصب":5024,"‌شناسی":5025,"زای":5026,"بانك":5027,"آکاد":5028,"عضویت":5029,"تعلی":5030,"یحی":5031,"تحمل":5032,"گسترد":5033,"وضعيت":5034,"تجربی":5035,"متقاضیان":5036,"مکعب":5037,"نویسندگان":5038,"۲۸":5039,"بیکاری":5040,"اینگونه":5041,"امداد":5042,"فلسطین":5043,"نوری":5044,"چندانی":5045,"زير":5046,"سلیمانی":5047,"امیدواری":5048,"اصرار":5049,"تاثیرگذار":5050,"نظارتی":5051,"تدر":5052,"كشت":5053,"پتان":5054,"زدند":5055,"ذوب‌آهن":5056,"فرست":5057,"الد":5058,"اندیشه":5059,"سکوت":5060,"بدنی":5061,"چگون":5062,"کاغذ":5063,"شك":5064,"چندی":5065,"محکوم":5066,"فراتر":5067,"بچه":5068,"بوس":5069,"نگرفته":5070,"تلقی":5071,"کنفدراسیون":5072,"پناه":5073,"يعني":5074,"یحیی":5075,"لوازم":5076,"چهره‌های":5077,"برجسته":5078,"راهبردی":5079,"ميت":5080,"سوپر":5081,"جزء":5082,"دريافت":5083,"حیدری":5084,"جريان":5085,"حاکی":5086,"تسهیل":5087,"مصلحت":5088,"لهی":5089,"می‌دانم":5090,"‌بندی":5091,"تلفن":5092,"ملی‌پوشان":5093,"مسکونی":5094,"دریا":5095,"فیک":5096,"كيد":5097,"مي‌کنند":5098,"مرات":5099,"خاد":5100,"تماشاگر":5101,"کلم":5102,"اصلي":5103,"دولت‌ها":5104,"گالری":5105,"اسرائیل":5106,"اجاره":5107,"بیا":5108,"آينده":5109,"خصوصا":5110,"آورند":5111,"رفتم":5112,"پلیس":5113,"کامی":5114,"واریز":5115,"صداوسیما":5116,"گذاشتند":5117,"داريم":5118,"مطهری":5119,"ادام":5120,"فاطمه":5121,"جرم":5122,"تکنولوژی":5123,"کریستی":5124,"زين":5125,"بازان":5126,"وارداتی":5127,"بگوییم":5128,"راز":5129,"ئیس":5130,"خشک":5131,"پلم":5132,"مرزی":5133,"آفرین":5134,"خطوط":5135,"همکاران":5136,"نشینی":5137,"زور":5138,"دال":5139,"پین":5140,"دوازدهم":5141,"تکل":5142,"اهواز":5143,"تاسیس":5144,"‌انداز":5145,"خوی":5146,"کانال":5147,"نوروز":5148,"نیمه‌":5149,"میادین":5150,"فراوانی":5151,"عس":5152,"معماری":5153,"صدرنشین":5154,"نمود":5155,"تشریح":5156,"وقتي":5157,"ذخیره":5158,"از‌":5159,"زنجیر":5160,"عقل":5161,"انفرا":5162,"می‌دهیم":5163,"۲۷":5164,"آوردن":5165,"آفرینی":5166,"همدان":5167,"البرز":5168,"انقلابی":5169,"تحر":5170,"يکا":5171,"جشنوار":5172,"راس":5173,"دانش‌آمو":5174,"زوی":5175,"کنگره":5176,"غالی":5177,"درضا":5178,"شهادت":5179,"پذير":5180,"۹۷":5181,"ریز":5182,"انیان":5183,"هوشمند":5184,"تغي":5185,"شده‌":5186,"کشورهایی":5187,"دیه":5188,"پالایشگاه":5189,"دادستان":5190,"دیپلماسی":5191,"منصوری":5192,"غنی":5193,"ابوال":5194,"مهاجر":5195,"مبتنی":5196,"متعددی":5197,"قضیه":5198,"خوبي":5199,"تغيير":5200,"آکادمی":5201,"سپی":5202,"بشر":5203,"طاه":5204,"ئون":5205,"زنند":5206,"مرادی":5207,"ایفا":5208,"آلود":5209,"داند":5210,"آسیب‌":5211,"اتفاقا":5212,"‌هایش":5213,"دارنده":5214,"آمريکا":5215,"نتوانسته":5216,"زامی":5217,"توانید":5218,"باسی":5219,"شیو":5220,"کاراته":5221,"فرض":5222,"اندن":5223,"تها":5224,"بين‌المللي":5225,"هجو":5226,"زيادي":5227,"جزئیات":5228,"جوانی":5229,"شبکه‌های":5230,"سرمايه‌":5231,"طنز":5232,"فلسفه":5233,"هرحال":5234,"جزیر":5235,"ريف":5236,"تفکر":5237,"اهد":5238,"کاش":5239,"مدي":5240,"منظر":5241,"تشک":5242,"مجتبی":5243,"قلی":5244,"خيلي":5245,"کلاسی":5246,"افزار":5247,"مطبوعات":5248,"منبع":5249,"کارفر":5250,"رئيس‌جمهور":5251,"تایل":5252,"جنگل":5253,"مهندس":5254,"تصاوی":5255,"شجاعی":5256,"عمدتا":5257,"مقاله":5258,"شبیه":5259,"بازرسی":5260,"پیچ":5261,"نمون":5262,"نويس":5263,"سلطانی":5264,"اقی":5265,"نایی":5266,"نتيجه":5267,"زحمت":5268,"میهمان":5269,"پهلو":5270,"خودروی":5271,"شام":5272,"تفک":5273,"يف":5274,"فرصتی":5275,"ملاقات":5276,"تروریستی":5277,"‌آوری":5278,"کارش":5279,"نمی‌دانم":5280,"فیلمی":5281,"كس":5282,"‌ون":5283,"سازو":5284,"نشریه":5285,"تیرماه":5286,"خواهید":5287,"مذهبی":5288,"نماز":5289,"ک‌های":5290,"بوم":5291,"محققان":5292,"ریو":5293,"گونا":5294,"بخواهیم":5295,"قربانی":5296,"مواضع":5297,"بزن":5298,"باقری":5299,"بعید":5300,"‌ی":5301,"بابک":5302,"پيش‌":5303,"ئت‌":5304,"می‌دانست":5305,"خداحافظی":5306,"باستان":5307,"نکنند":5308,"2020":5309,"سازد":5310,"شیرین":5311,"برایم":5312,"له‌":5313,"درواقع":5314,"متری":5315,"قید":5316,"بینم":5317,"نگهداری":5318,"نمی‌کنند":5319,"ثير":5320,"جودو":5321,"تنیس":5322,"سوئ":5323,"جانب":5324,"غام":5325,"گیرم":5326,"ارزان":5327,"صره":5328,"مجددا":5329,"پدید":5330,"اضل":5331,"قلعه":5332,"دوومیدانی":5333,"متولی":5334,"ورودی":5335,"کلو":5336,"‌به":5337,"تحری":5338,"مهرماه":5339,"ئه":5340,"شمرد":5341,"عمان":5342,"اخير":5343,"بلژیک":5344,"خانی":5345,"جنگی":5346,"ابراهی":5347,"شنیده":5348,"کلیدی":5349,"مزی":5350,"اجلاس":5351,"65":5352,"قیمت‌های":5353,"دیدا":5354,"33":5355,"آهنگ":5356,"حوا":5357,"بسياري":5358,"مهارت":5359,"قالی":5360,"نمایند":5361,"زنجانی":5362,"راين":5363,"کارگاه":5364,"می‌آورد":5365,"ناراحت":5366,"اصناف":5367,"چين":5368,"سرمايه":5369,"داخلي":5370,"دختران":5371,"ظهر":5372,"تقابل":5373,"گرچه":5374,"فضایی":5375,"سجاد":5376,"منچستر":5377,"تیم‌ملی":5378,"پیو":5379,"2018":5380,"تصمیمی":5381,"مراتب":5382,"مدارس":5383,"رویه":5384,"اساسا":5385,"‌فر":5386,"دوره‌های":5387,"استان‌های":5388,"معرض":5389,"روحاني":5390,"الف":5391,"کراین":5392,"پنجمین":5393,"تدارکاتی":5394,"پشتیبانی":5395,"نع":5396,"دبیرکل":5397,"شریف":5398,"85":5399,"منی":5400,"آنلاین":5401,"خطرناک":5402,"بیاورد":5403,"شایعات":5404,"2015":5405,"برویم":5406,"حرک":5407,"به‌شدت":5408,"ازجمله":5409,"توق":5410,"کوویچ":5411,"ذخایر":5412,"آشنایی":5413,"الص":5414,"ذهنی":5415,"راهکار":5416,"مسافران":5417,"اسپورت":5418,"عموم":5419,"ارق":5420,"بلاف":5421,"بره":5422,"84":5423,"مرجع":5424,"شیدی":5425,"عمرانی":5426,"عط":5427,"کارگر":5428,"91":5429,"برایش":5430,"هم‌زمان":5431,"قدس":5432,"كشاور":5433,"جانشین":5434,"کسیون":5435,"عیتی":5436,"انا":5437,"ه‌شدن":5438,"ديدار":5439,"۹۶":5440,"غن":5441,"قابلیت":5442,"اطراف":5443,"بلافاصله":5444,"ثال":5445,"عاتی":5446,"تروی":5447,"ايشان":5448,"قهرماني":5449,"فیزیکی":5450,"حالي":5451,"ارتباطی":5452,"انفرادی":5453,"32":5454,"نگر":5455,"فیف":5456,"اساسنامه":5457,"دروغ":5458,"سیا":5459,"عبدالله":5460,"حواشی":5461,"نمی‌توانند":5462,"پاداش":5463,"علنی":5464,"بورگ":5465,"حصر":5466,"معرف":5467,"اعم":5468,"کین":5469,"به‌دنبال":5470,"یارانه‌ها":5471,"خطا":5472,"همین‌":5473,"بدست":5474,"نخب":5475,"مارک":5476,"ه‌اید":5477,"مي‌گويد":5478,"دوش":5479,"رییس‌جمهور":5480,"کردستان":5481,"اوکراین":5482,"بردار":5483,"مشك":5484,"گرامی":5485,"خوانده":5486,"تعرفه":5487,"ایراد":5488,"نکات":5489,"می‌کردم":5490,"اين‌كه":5491,"ارب":5492,"تبادل":5493,"جاده":5494,"عوار":5495,"ربی":5496,"ذیب":5497,"بازگرد":5498,"دهید":5499,"۶۵":5500,"می‌افتد":5501,"حاکمیت":5502,"گنج":5503,"رفسنجانی":5504,").":5505,"فیلم‌ها":5506,"پوند":5507,"نیازی":5508,"سویه":5509,"شکلی":5510,"جلد":5511,"فرستاد":5512,"آمريكا":5513,"نمی‌توانیم":5514,"نمايندگان":5515,"طان":5516,"بهشتی":5517,"دقیقا":5518,"كنم":5519,"44":5520,"مالکیت":5521,"الگو":5522,"زیبایی":5523,"اندازی":5524,"ریلی":5525,"تعادل":5526,"کمي":5527,"تایلند":5528,"چگونگی":5529,"نسب":5530,"اصولگرا":5531,"کریستیانو":5532,"امني":5533,"۹۸":5534,"دوربین":5535,"کاو":5536,"كردن":5537,"غیرقانونی":5538,"نامزدهای":5539,"منزل":5540,"تخلفات":5541,"گفتمان":5542,"اشخاص":5543,"مبارز":5544,"بناب":5545,"الزام":5546,"تاکتی":5547,"خاطره":5548,"جه‌ای":5549,"بدین":5550,"نداشتیم":5551,"يب":5552,"نورو":5553,"قیر":5554,"تضمین":5555,"استراتژی":5556,"رسیدیم":5557,"جوایز":5558,"تأمين":5559,"55":5560,"شاء":5561,"آفریق":5562,"الهی":5563,"رده‌بندی":5564,"ایالات":5565,"رخانه":5566,"بير":5567,"آرای":5568,"ي‌ها":5569,"انگار":5570,"قصه":5571,"دشمنان":5572,"گذاشتن":5573,"گازی":5574,"مربي":5575,"بدل":5576,"هاب":5577,"سرای":5578,"توکیو":5579,"دولت‌های":5580,"مهمان":5581,"ایران‌":5582,"جزیره":5583,"نخواهند":5584,"‌سال":5585,"عرص":5586,"اسطور":5587,"یكی":5588,"شادی":5589,"ضاي":5590,"ناحیه":5591,"نواز":5592,"می‌بینیم":5593,"حیات":5594,"پیوستن":5595,"مفی":5596,"متفاوتی":5597,"رسما":5598,"ترس":5599,"فاقد":5600,"بلی":5601,"فیق":5602,"انضباطی":5603,"پاریس":5604,"اعضا":5605,"رانوند":5606,"اوب":5607,"عتا":5608,"خصوصي":5609,"مهلت":5610,"مهرداد":5611,"الگوی":5612,"منتهی":5613,"متحد":5614,"‌مدت":5615,"سازمان‌های":5616,"پتانسیل":5617,"‌میلیون":5618,"خداوند":5619,"خطی":5620,"لیلی":5621,"کارآمد":5622,"می‌گذارد":5623,"تخصص":5624,"کاپ":5625,"اهلی":5626,"ازن":5627,"‌دادن":5628,"توانمند":5629,"رمضان":5630,"مثبتی":5631,"عاشق":5632,"کردید":5633,"شطر":5634,"معنوی":5635,"استادان":5636,"ويژه":5637,"دانشکده":5638,"رشته‌های":5639,"کسي":5640,"لوگرم":5641,"بچه‌ها":5642,"متمرکز":5643,"جناب":5644,"پیاپی":5645,"جذابی":5646,"ازدو":5647,"سول":5648,"صهیونیستی":5649,"همکاری‌های":5650,"اقد":5651,"نتیجه‌":5652,"ريح":5653,"مجازات":5654,"میانی":5655,"عظیم":5656,"کارلوس":5657,"یل":5658,"نخبگان":5659,"کران":5660,"تند":5661,"غلط":5662,"صبر":5663,"آشکار":5664,"تنهایی":5665,"سلاح":5666,"ظهور":5667,"خواندن":5668,"تیراند":5669,"کاخ":5670,"فراکسیون":5671,"آسيا":5672,"قوت":5673,"بنابراين":5674,"شطرنج":5675,"استناد":5676,"معاف":5677,"محمدعلی":5678,"نبرد":5679,"نمايشگاه":5680,"تعویض":5681,"ه‌ايم":5682,"رئیسه":5683,"فرق":5684,"راهبرد":5685,"عوارض":5686,"سیاست‌گذاری":5687,"جاري":5688,"تصویری":5689,"برانگی":5690,"لوا":5691,"ترز":5692,"سفیر":5693,"داستانی":5694,"نداشتن":5695,"قاسمی":5696,"واکس":5697,"درمانی":5698,"شغ":5699,"برگزیده":5700,"مدنی":5701,"الي":5702,"ایتی":5703,"ملت‌های":5704,"هاشمی‌":5705,"يند":5706,"پش":5707,"تعویق":5708,"مستمر":5709,"ازدواج":5710,"‌دهنده":5711,"36":5712,"نيرو":5713,"۲۹":5714,"می‌کردیم":5715,"مي‌كنند":5716,"ازای":5717,"پسند":5718,"آيا":5719,"مصدوم":5720,"استث":5721,"باقر":5722,"پژوهشگاه":5723,"هوش":5724,"توری":5725,"معوق":5726,"تراز":5727,"عار":5728,"تولیدکننده":5729,"این‌كه":5730,"نوروزی":5731,"مبادلات":5732,"ارومیه":5733,"بلندمدت":5734,"نامه‌های":5735,"جغ":5736,"کاندیدا":5737,"تث":5738,"تحريم":5739,"بیرانوند":5740,"هستید":5741,"پایداری":5742,"اقلی":5743,"حبی":5744,"راقی":5745,"دیدگی":5746,"پرسید":5747,"انحص":5748,"تزریق":5749,"کمان":5750,"ثروت":5751,"بدانند":5752,"‌گو":5753,"استعفا":5754,"صاحبان":5755,"دستاوردهای":5756,"برنامه‌ها":5757,"بستان":5758,"آوردند":5759,"نوشتن":5760,"بگو":5761,"تشدید":5762,"رانت":5763,"منش":5764,"مشتری":5765,"سوار":5766,"رایزنی":5767,"فرزندان":5768,"بیند":5769,"ندان":5770,"يات":5771,"ماتیک":5772,"اسماعیلی":5773,"دسترس":5774,"حمایتی":5775,"لذت":5776,"راه‌آهن":5777,"برنامه‌ای":5778,"کرده‌ام":5779,"کما":5780,"ي‌هاي":5781,"دیوار":5782,"تحمیل":5783,"آرزو":5784,"34":5785,"ماچ":5786,"جعفر":5787,"بنگاه‌های":5788,"فیلمس":5789,"اقشار":5790,"قطار":5791,"مبتلا":5792,"استاندار":5793,"ویژگی‌های":5794,"ناخالص":5795,"گفتنی":5796,"منامه":5797,"پذیرفته":5798,"قائل":5799,"اندون":5800,"انتظارات":5801,"دولتي":5802,"تین":5803,"اسماعیل":5804,"کسری":5805,"خامن":5806,"نظم":5807,"‌دار":5808,"واش":5809,"صلی":5810,"نماينده":5811,"ماندگار":5812,"‌میلیارد":5813,"گاو":5814,"طريق":5815,"700":5816,"صدق":5817,"گرام":5818,"همانطور":5819,"درحال‌حاضر":5820,"چیده":5821,"خرج":5822,"پنهان":5823,"ریشه":5824,"آمارهای":5825,"اراده":5826,"پارل":5827,"نکردند":5828,"نامی":5829,"طیف":5830,"نعمت":5831,"طارمی":5832,"کلیه":5833,"ایمنی":5834,"آرژانتینی":5835,"تبصره":5836,"مری":5837,"مجری":5838,"لطف":5839,"رؤ":5840,"گویا":5841,"چنانچه":5842,"محاسبات":5843,"طبا":5844,"توصیف":5845,"بزنند":5846,"ببریم":5847,"99":5848,"ارقام":5849,"ممنو":5850,"بحرین":5851,"نوسازی":5852,"غذا":5853,"عج":5854,"انیا":5855,"بلا":5856,"بگوید":5857,"محبوب":5858,"فای":5859,"منصوب":5860,"قالیباف":5861,"اثبات":5862,"مي‌شوند":5863,"شهرخودرو":5864,"اتفاقاتی":5865,"۴۵":5866,"ليگ":5867,"ببرند":5868,"اصط":5869,"استانداردهای":5870,"انتقادات":5871,"مازاد":5872,"روندی":5873,"عزت":5874,"اسپان":5875,"خلاصه":5876,"‌ایسنا":5877,"زندگي":5878,"ادبي":5879,"فیلی":5880,"امیرحسین":5881,"پرداختند":5882,"متولد":5883,"ابند":5884,"هکت":5885,"اقداماتی":5886,"دستیار":5887,"آلومینی":5888,"بازنشستگی":5889,"نزدیکی":5890,"فور":5891,"فروخته":5892,"انبو":5893,"نهایتا":5894,"گفتن":5895,"پارک":5896,"عمیق":5897,"ایوان":5898,"بومی":5899,"گواردی":5900,"بزرگان":5901,"ژانویه":5902,"پرتغالی":5903,"نرسیده":5904,"تکذیب":5905,"اختلافات":5906,"قراری":5907,"روش‌های":5908,"تلاش‌های":5909,"ماچونی":5910,"راجع":5911,"مدافعان":5912,"هوادار":5913,"نگتن":5914,"دشواری":5915,"توانمندی":5916,"وسیله":5917,"خبرگان":5918,"کشاورزان":5919,"سين":5920,"استراماچونی":5921,"روغن":5922,"كاري":5923,"بوی":5924,"نبودند":5925,"به‌خصوص":5926,"نخست‌و":5927,"کانادا":5928,"800":5929,"مساوی":5930,"زائران":5931,"آرزوی":5932,"شینی":5933,"ارک":5934,"خادم":5935,"تاخیر":5936,"بازاری":5937,"مشاغل":5938,"غلامرضا":5939,"رنکینگ":5940,"روحی":5941,"گواردیولا":5942,"تصريح":5943,"می‌خورد":5944,"نمی‌دهد":5945,"لیگا":5946,"سویی":5947,"واکسن":5948,"مالزی":5949,"وزنه‌برداری":5950,"الاهلی":5951,"اگو":5952,"ضمان":5953,"تاي":5954,"ترویج":5955,"آمیز":5956,"زماني":5957,"می‌دانیم":5958,"مؤسسات":5959,"ناگه":5960,"ریش":5961,"حمل‌ون":5962,"کارگری":5963,"عمران":5964,"طبیعتا":5965,"برترین":5966,"انگلستان":5967,"نهادها":5968,"درود":5969,"دوستی":5970,"بخشي":5971,"طرفداران":5972,"تعطیلات":5973,"بيم":5974,"کیمی":5975,"مايي":5976,"آمریکایی‌ها":5977,"تاريخ":5978,"جنس":5979,"آبادی":5980,"قایقی":5981,"مسائ":5982,"قضائ":5983,"اینستا":5984,"اقلام":5985,"تقدیم":5986,"57":5987,"پارالمپیک":5988,"باران":5989,"بنادر":5990,"‌ترين":5991,"بورسی":5992,"فروشگاه":5993,"نمی‌کنم":5994,"بتوانم":5995,"هستيم":5996,"ولیت":5997,"اکس":5998,"‌حال":5999,"وکیل":6000,"برسان":6001,"600":6002,"واشنگتن":6003,"هیجان":6004,"۹۵":6005,"37":6006,"الکترونیک":6007,"ناه":6008,"املاک":6009,"دستگاه‌ها":6010,"اث":6011,"تجمع":6012,"آلومینیوم":6013,"راه‌حل":6014,"۳۵":6015,"احیای":6016,"دبیرخانه":6017,"امروزه":6018,"ناپولی":6019,"آسمان":6020,"می‌گفت":6021,"دیشب":6022,"افتی":6023,"----------------":6024,"حمل‌ونقل":6025,"مدارک":6026,"تنوع":6027,"ضاح":6028,"مجتمع":6029,"ایمان":6030,"اشتباهات":6031,"کابی":6032,"رحی":6033,"کارکرد":6034,"نسبی":6035,"كننده":6036,"سعدی":6037,"اقت":6038,"رقب":6039,"میم":6040,"مفید":6041,"معیار":6042,"بانه":6043,"ادب":6044,"زمستان":6045,"حامل":6046,"ابزارهای":6047,"جابه‌":6048,"مطمئنا":6049,"تعلیق":6050,"عذر":6051,"بیایند":6052,"‌نظر":6053,"یزدانی":6054,"2019":6055,"کنسرت":6056,"اولين":6057,"تأسیس":6058,"دامن":6059,"غیبت":6060,"حساسیت":6061,"فلز":6062,"انح":6063,"اصطلاح":6064,"کیا":6065,"نیستیم":6066,"توجیه":6067,"کاسی":6068,"کاظمی":6069,"گوناگون":6070,"گذارند":6071,"نها":6072,"‌آور":6073,"فاج":6074,"کلوپ":6075,"بق":6076,"قراردادش":6077,"؟!":6078,"نشانی":6079,"خواهيم":6080,"واج":6081,"نیما":6082,"خودروها":6083,"هین":6084,"اینترنتی":6085,"درخت":6086,"منتظ":6087,"هدفمندی":6088,"به‌خاطر":6089,"ایلی":6090,"خوش‌":6091,"سیما":6092,"ششمین":6093,"نیوی":6094,"بشود":6095,"تمدن":6096,"نشانه":6097,"نشدن":6098,"علام":6099,"دقایقی":6100,"تکیه":6101,"واحدی":6102,"سازنده":6103,"تماشای":6104,"ادغام":6105,"ضوابط":6106,"وجو":6107,"زمینه‌های":6108,"تک‌":6109,"48":6110,"بیانی":6111,"تفاهم‌":6112,"مض":6113,"ابا":6114,"اندیشی":6115,"مصوبات":6116,"آیین‌نامه":6117,"‭.":6118,"خريد":6119,"كنار":6120,"سوده":6121,"شهردار":6122,"محدوده":6123,"علمي":6124,"گفت‌وگوی":6125,"خیال":6126,"نحوی":6127,"گلزن":6128,"اکثری":6129,"طوف":6130,"مستقر":6131,"عکاس":6132,"می‌آیند":6133,"نبودن":6134,"صندوق‌های":6135,"سيون":6136,"شايد":6137,"بیستم":6138,"تحقي":6139,"جنبش":6140,"مریم":6141,"بگذارند":6142,"امتي":6143,"بدهم":6144,"جلسه‌ای":6145,"آنقدر":6146,"کارگروه":6147,"اختصاصی":6148,"فوق‌العاده":6149,"طبایی":6150,"آن‌قدر":6151,"تسویه":6152,"غافل":6153,"آپ":6154,"اراضی":6155,"مطالب":6156,"هرمز":6157,"بختی":6158,"به‌جای":6159,"سنگینی":6160,"سطوح":6161,"رقمی":6162,"۱۳۸":6163,"خوانید":6164,"زنگنه":6165,"فین":6166,"جمهوري":6167,"قرض":6168,"محیطی":6169,"هکتار":6170,"صالح":6171,"شبه":6172,"ناس":6173,"ببینید":6174,"پژوهشگران":6175,"همسایه":6176,"ناوگان":6177,"صحت":6178,"گیلان":6179,"اكنون":6180,"پرویز":6181,"آزمایش":6182,"اسکن":6183,"كسب":6184,"آفت":6185,"خامنه‌ای":6186,"می‌گذرد":6187,"میث":6188,"38":6189,"تصاویر":6190,"مدرس":6191,"بر‌":6192,"اختيار":6193,"طباطبایی":6194,"مارس":6195,"الو":6196,"سپرده‌":6197,"طبي":6198,"عقی":6199,"اندک":6200,"چه‌":6201,"انتهای":6202,"هفته‌های":6203,"رخت":6204,"گراي":6205,"نوزدهم":6206,"ناپذیر":6207,"بعضا":6208,"ممل":6209,"اعزامی":6210,"جغرافی":6211,"نوسانات":6212,"قاعد":6213,"کویت":6214,"دارایی‌های":6215,"لیه":6216,"اعطای":6217,"نقشی":6218,"الکترونیکی":6219,"قیمت‌گذاری":6220,"گرایش":6221,"شکل‌گیری":6222,"اتوبوس":6223,"بایست":6224,"برقراری":6225,"ساری":6226,"دادگست":6227,"کمر":6228,"تثبیت":6229,"آثاری":6230,"می‌شویم":6231,"خسرو":6232,"ویر":6233,"مصرفی":6234,"76":6235,"بهره‌وری":6236,"طرفین":6237,"هج":6238,"اتور":6239,"اکثریت":6240,"عراقی":6241,"معرفي":6242,"یادداشت":6243,"زلزله":6244,"کابینه":6245,"تصميم":6246,"کوس":6247,"این‌طور":6248,"اغ":6249,"ایای":6250,"درخش":6251,"آماری":6252,"اقتدار":6253,"شناسان":6254,"شاغل":6255,"بگذاریم":6256,"فردوسی":6257,"توهین":6258,"نتوانستند":6259,"کسب‌و":6260,"علاقه‌مند":6261,"مشهور":6262,"کوتاهی":6263,"قاطع":6264,"دوپینگ":6265,"هدفمند":6266,"همگی":6267,"بدنه":6268,"به‌کار":6269,"خریداران":6270,"می‌رفت":6271,"گذران":6272,"۳۰۰":6273,"سویا":6274,"بوند":6275,"می‌دهم":6276,"ابراهیمی":6277,"اميد":6278,"مواجهه":6279,"اميدو":6280,"طق":6281,"خویش":6282,"تدریج":6283,"شغلی":6284,"توسع":6285,"گم":6286,"تابی":6287,"رست":6288,"روال":6289,"عنا":6290,"یادآوری":6291,"آذ":6292,"ميل":6293,"دانشجویی":6294,"بازیگری":6295,"روزنامه‌":6296,"نوید":6297,"محض":6298,"دریای":6299,"74":6300,"يين":6301,"an":6302,"جهانگیری":6303,"پوشی":6304,"مجله":6305,"رقابتهای":6306,"حدادی":6307,"نقشه":6308,"نمايش":6309,"انصراف":6310,"معمول":6311,"بدانیم":6312,"زينه":6313,"فضاي":6314,"تونی":6315,"صندلی":6316,"نداشتم":6317,"امتياز":6318,"کمتری":6319,"باشگاه‌ها":6320,"توانی":6321,"شمس":6322,"قبیل":6323,"۹۴":6324,"مشكلات":6325,"شوید":6326,"نقض":6327,"سرطان":6328,"نیم‌":6329,"امتیازات":6330,"این‌حال":6331,"اوباما":6332,"اینطور":6333,"دلال":6334,"مناظ":6335,"نیروگاه":6336,"بوندس":6337,"تبریزی":6338,"اساسي":6339,"رصد":6340,"گشایی":6341,"مسائلی":6342,"پنجره":6343,"تعيين":6344,"اسکار":6345,"‌در":6346,"یافتن":6347,"استراتژیک":6348,"پردیس":6349,"لاي":6350,"ماهانه":6351,"ثیری":6352,"نیویورک":6353,"انش":6354,"خشونت":6355,"هاشمی‌رفسنجانی":6356,"ضربات":6357,"می‌ماند":6358,"پذیرد":6359,"حرم":6360,"‌پذیر":6361,"گواهی":6362,"برپا":6363,"اراک":6364,"برمی‌گردد":6365,"66":6366,"اندونزی":6367,"علیزاده":6368,"پیچیده":6369,"مترمکعب":6370,"تروریسم":6371,"بديل":6372,"قضاییه":6373,"كرده‌اند":6374,"منتقد":6375,"علیپور":6376,"وای":6377,"پروتکل":6378,"خودروسازی":6379,"بروم":6380,"شعبه":6381,"برشمرد":6382,"ارزشی":6383,"به‌هرحال":6384,"باشيم":6385,"نفری":6386,"دلیلی":6387,"اردن":6388,"وسي":6389,"پرچم":6390,"یاز":6391,"بزرگداشت":6392,"پيشنهاد":6393,"تخفیف":6394,"پله":6395,"روزي":6396,"تعجب":6397,"حیا":6398,"2013":6399,"بپردازد":6400,"فوتبالیست":6401,"قاع":6402,"زیستی":6403,"دقي":6404,"بسیج":6405,"۳۱":6406,"چای":6407,"موتس":6408,"اجار":6409,"توانم":6410,"پرداختی":6411,"مهاجرت":6412,"خصوصی‌سازی":6413,"می‌زنند":6414,"۹۲":6415,"استقرار":6416,"بعدها":6417,"ناکامی":6418,"،‭":6419,"الهلال":6420,"لحظات":6421,"مقالات":6422,"سیمان":6423,"سوتان":6424,"کیار":6425,"تغییراتی":6426,"يمي":6427,"؟»":6428,"وعد":6429,"خروجی":6430,"ثان":6431,"پیشکسوت":6432,"می‌‌":6433,"سرمايه‌گذاري":6434,"مربع":6435,"بیماران":6436,"ماها":6437,"دانشمند":6438,"دانشگاه‌های":6439,"بازنگری":6440,"مسير":6441,"مهران":6442,"سیف":6443,"کول":6444,"دانسته":6445,"سمن":6446,"اوست":6447,"هوای":6448,"بهرام":6449,"تجلیل":6450,"السد":6451,"ملی‌پوش":6452,"سهمی":6453,"خاتمه":6454,"الم":6455,"تسلیت":6456,"ساختاری":6457,"دریافتی":6458,"مي‌رسد":6459,"آمریكا":6460,"مسكن":6461,"وسط":6462,"حاجی":6463,"عمق":6464,"2017":6465,"کشد":6466,"رونی":6467,"بازهم":6468,"مي‌شد":6469,"1393":6470,"گردی":6471,"حکایت":6472,"بندي":6473,"صادرکنندگان":6474,"قاعده":6475,"باتجربه":6476,"تبديل":6477,"ساحلی":6478,"فضل":6479,"كنندگان":6480,"فرمود":6481,"لقب":6482,"1392":6483,"89":6484,"۹۹":6485,"آخو":6486,"تندی":6487,"کيد":6488,"جس":6489,"نادرست":6490,"حدودی":6491,"اوز":6492,"مصدق":6493,"پوست":6494,"رياست":6495,"تمرینی":6496,"حسين":6497,"مکزی":6498,"رحیمی":6499,"لرستان":6500,"ویلموتس":6501,"سال‌هاي":6502,"فراخوان":6503,"منصور":6504,"چالش‌های":6505,"چابه":6506,"مرتض":6507,"رفتیم":6508,"جال":6509,"‌عالی":6510,"گفتی":6511,"چابهار":6512,"مترو":6513,"بپردازند":6514,"تحقیقاتی":6515,"روسي":6516,"پیش‌رو":6517,"وجوه":6518,"وابستگی":6519,"بازرگاني":6520,"شرف":6521,"قدردانی":6522,"بلوچ":6523,"کاب":6524,"پرستی":6525,"تغییری":6526,"برت":6527,"فسخ":6528,"بگویند":6529,"اقتصاددان":6530,"بيني":6531,"‌است":6532,"اینترنت":6533,"تختی":6534,"اندکی":6535,"اهو":6536,"خدام":6537,"صری":6538,"هان":6539,"متشکل":6540,"قوا":6541,"عاق":6542,"متعهد":6543,"زلی":6544,"می‌رسید":6545,"بخواهند":6546,"ساير":6547,"امام‌":6548,"150":6549,"اشغال":6550,"عاد":6551,"طرحی":6552,"سی‌":6553,"رییس‌جمهوری":6554,"نامه‌ها":6555,"ریالی":6556,"جهش":6557,"گرج":6558,"۴۰۰":6559,"جدال":6560,"عصبانی":6561,"صنعتي":6562,"سرخپوشان":6563,"اژ":6564,"طرفدار":6565,"سخنران":6566,"نگارش":6567,"شاخص‌های":6568,"وئن":6569,"نادر":6570,"مترجم":6571,"ملوان":6572,"آذرماه":6573,"عباسی":6574,"فاع":6575,"حرف‌های":6576,"فرصت‌های":6577,"ناشر":6578,"محکم":6579,"ماع":6580,"ردیف":6581,"ه‌است":6582,"پیوسته":6583,"اندیش":6584,"برابری":6585,"گور":6586,"به‌گونه‌ای":6587,"گردشگر":6588,"خوردن":6589,"كمي":6590,"حلقه":6591,"120":6592,"ارجاع":6593,"تبی":6594,"هفته‌":6595,"کهن":6596,"محافظ":6597,"معاملاتی":6598,"استقلالی":6599,"افزاید":6600,"توسعه‌":6601,"گرانی":6602,"پژوهشگر":6603,"نادیده":6604,"مشكل":6605,"نسبتا":6606,"شخصیت‌های":6607,"ترين":6608,"سوز":6609,"شفر":6610,"ارزي":6611,"جار":6612,"پزشکان":6613,"مهدوی":6614,"er":6615,"‌درصد":6616,"دفع":6617,"بون":6618,"اینجاست":6619,"86":6620,"اردوهای":6621,"قانوني":6622,"کالایی":6623,"برگردد":6624,"ولتی":6625,"پیش‌تر":6626,"می‌برند":6627,"مدعیان":6628,"سپتام":6629,"كود":6630,"سپتامبر":6631,"چهل":6632,"تجربیات":6633,"مسجدسلیمان":6634,"معن":6635,"تصاب":6636,"حرفی":6637,"انبار":6638,"جمی":6639,"پیچید":6640,"درسی":6641,"مشخصی":6642,"پژو":6643,"ادامه‌":6644,"منصوریان":6645,"می‌گفتند":6646,"خانه‌ای":6647,"غیرد":6648,"نگرفت":6649,"وزیران":6650,"بغ":6651,"رختکن":6652,"زوج":6653,"کارهایی":6654,"زنجیره":6655,"خزانه":6656,"آلودگی":6657,"ظاهری":6658,"قزوین":6659,"کیش":6660,"ازي":6661,"بهان":6662,"کلمه":6663,"مدام":6664,"هام":6665,"خلف":6666,"مرکزي":6667,"نبايد":6668,"میوه":6669,"دنيا":6670,"تبعات":6671,"‌گری":6672,"کیارستمی":6673,"شهدا":6674,"نخست‌وزیر":6675,"اهاي":6676,"چشم‌انداز":6677,"مطلع":6678,"کشورش":6679,"يلات":6680,"راه‌های":6681,"مردی":6682,"اقامت":6683,"اثری":6684,"قتل":6685,"معتر":6686,"آد":6687,"مسلم":6688,"کلام":6689,"رحمتی":6690,"اعضاي":6691,"ازسوی":6692,"رسيده":6693,"کالدرون":6694,"تردد":6695,"عناصر":6696,"تیراندازی":6697,"كنیم":6698,"الدین":6699,"مهیا":6700,"هیئت‌":6701,"رحمانی":6702,"می‌توانم":6703,"پالایش":6704,"گشایش":6705,"اسطوره":6706,"سوئد":6707,"ا‌":6708,"قن":6709,"تصوي":6710,"زنجان":6711,"حمیدرضا":6712,"کشورهاي":6713,"فرسوده":6714,"سالهای":6715,"پیشگیری":6716,"کرواسی":6717,"اسفندماه":6718,"گردن":6719,"مرزهای":6720,"غرف":6721,"خیلی‌ها":6722,"سیرجان":6723,"استخدام":6724,"يافته":6725,"هواپیمای":6726,"خواننده":6727,"صمی":6728,"جايي":6729,"اقص":6730,"سازند":6731,"ارض":6732,"جدي":6733,"اوقات":6734,"برمی‌":6735,"کلاسیک":6736,"لوکا":6737,"ایب":6738,"میلیون‌":6739,"AT":6740,"نرسید":6741,"نکنیم":6742,"درآمدی":6743,"سرانه":6744,"تبیین":6745,"ارمنستان":6746,"یکم":6747,"جمع‌آوری":6748,"نظرس":6749,"نخواهیم":6750,"ارگان":6751,"نوبخت":6752,"جراحی":6753,"اختیارات":6754,"شير":6755,"رساندن":6756,"جوام":6757,"نمی‌شد":6758,"پیشرفته":6759,"مطلق":6760,"جزی":6761,"داغ":6762,"رقبای":6763,"حضوری":6764,"ورزشي":6765,"ستین":6766,"زع":6767,"ژوئن":6768,"تأثير":6769,"بها":6770,"پشتو":6771,"ئین":6772,"جلالی":6773,"هزين":6774,"گروه‌ها":6775,"بدترین":6776,"شهدای":6777,"۲۰۲۰":6778,"له‌ای":6779,"۷۵":6780,"منحصر":6781,"پررنگ":6782,"مسوول":6783,"فورد":6784,"لوله":6785,"يت‌هاي":6786,"استخرا":6787,"فرآورد":6788,"شكل":6789,"كمك":6790,"مسلمانان":6791,"کلین":6792,"می‌دادند":6793,"رسند":6794,"نویسند":6795,"كاری":6796,"عالي":6797,"امبر":6798,"مناسبات":6799,"خلیل":6800,"افشین":6801,"۲۰۱۷":6802,"تفسیر":6803,"42":6804,"چر":6805,"کارگزاران":6806,"دز":6807,"طرح‌ها":6808,"ممنوعیت":6809,"روم":6810,"پشتوانه":6811,"ازان":6812,"2012":6813,"مختص":6814,"خودداری":6815,"وزه":6816,"نایب‌":6817,"ریخت":6818,"یونان":6819,"پیاده":6820,"فني":6821,"توانستم":6822,"باي":6823,"ئم":6824,"معضل":6825,"صراحت":6826,"فاضل":6827,"راهکارهای":6828,"شتاب":6829,"کاف":6830,"افقی":6831,"معیشت":6832,"تشکی":6833,"عاملی":6834,"دیدیم":6835,"معلم":6836,"قرعه":6837,"مدت‌ها":6838,"نحو":6839,"ارکستر":6840,"یکسان":6841,"کارتا":6842,"پیکر":6843,"چاه":6844,"رهبري":6845,"زیرساخت‌های":6846,"خواستند":6847,"شکاف":6848,"قلبی":6849,"ویلی":6850,"به‌خوبی":6851,"فكر":6852,"استخراج":6853,"دکت":6854,"صربستان":6855,"استیک":6856,"قدری":6857,"کاه":6858,"گزارش‌های":6859,"وصول":6860,"می‌شدند":6861,"ایفای":6862,"تبلیغاتی":6863,"آفریقا":6864,"تعدیل":6865,"ختم":6866,"هیچ‌گاه":6867,"المپیکی":6868,"کناری":6869,"نگاری":6870,"خودروساز":6871,"شاءالله":6872,"رادیو":6873,"امنيت":6874,"اشکال":6875,"کلید":6876,"هزینه‌ها":6877,"اقبال":6878,"سیاست‌":6879,"زحمات":6880,"مکر":6881,"اعتراضات":6882,"تصويب":6883,"سال‌":6884,"پیاد":6885,"متخصصان":6886,"عده":6887,"دیپلم":6888,"گبا":6889,"همگانی":6890,"نانو":6891,"داوطل":6892,"دري":6893,"افزون":6894,"نکون":6895,"مي‌گيرد":6896,"ندید":6897,"عذرخواهی":6898,"معترض":6899,"عزم":6900,"اعتدال":6901,"می‌گرفت":6902,"نیفت":6903,"آرش":6904,"نعم":6905,"ثار":6906,"ستارگان":6907,"نکونام":6908,"دیجی":6909,"جاکارتا":6910,"خزر":6911,"دراز":6912,"هف":6913,"آلبوم":6914,"مسلمین":6915,"اثرات":6916,"بلوچستان":6917,"شانسی":6918,"سلامتی":6919,"اونس":6920,"کشته":6921,"شکسته":6922,"روسيه":6923,"دموکراسی":6924,"گرمی":6925,"گس":6926,"مبارک":6927,"رقابت‌هاي":6928,"رویترز":6929,"رأي":6930,"شناختی":6931,"نهض":6932,"وران":6933,"می‌پردازد":6934,"اینچ":6935,"احکام":6936,"آزادسازی":6937,"سانتی":6938,"محمدجواد":6939,"سینا":6940,"الهام":6941,"ورده":6942,"قانی":6943,"کوه":6944,"حمایت‌های":6945,"پپ":6946,"بگیرم":6947,"هزينه":6948,"میتی":6949,"پرسپولیسی":6950,"ببینند":6951,"اميدوار":6952,"مشورت":6953,"‌افزار":6954,"ناکام":6955,"عادت":6956,"همان‌":6957,"هندی":6958,"تورمی":6959,"پایین‌تر":6960,"‌مانده":6961,"مراق":6962,"بررسی‌های":6963,"همگان":6964,"كشتي":6965,"برداري":6966,"پرف":6967,"امكان":6968,"بحرانی":6969,"هيات":6970,"احیا":6971,"دائمی":6972,"مقصر":6973,"توقع":6974,"جاس":6975,"گودر":6976,"هفتمین":6977,"جوامع":6978,"لبنی":6979,"ژاپنی":6980,"پارسال":6981,"ميدان":6982,"سخنانی":6983,"قائم":6984,"تندرو":6985,"ربط":6986,"نعمتی":6987,"خسته":6988,"كشاورزي":6989,"پیگیر":6990,"گراف":6991,"گویم":6992,"مغان":6993,"انف":6994,"خوشحالی":6995,"بکش":6996,"شایع":6997,"77":6998,"یافتند":6999,"قرنطی":7000,"بستری":7001,"عن":7002,"توکلی":7003,"ساختمانی":7004,"خوراک":7005,"حیث":7006,"هيئت":7007,"مادی":7008,"دراین‌باره":7009,"کوپا":7010,"رحمان":7011,"طبیعت":7012,"۹۳":7013,"محمدحسین":7014,"دژ":7015,"58":7016,"قیاس":7017,"فاجعه":7018,"قرنطینه":7019,"پرهی":7020,"یاری":7021,"آری":7022,"مقوله":7023,"خریدار":7024,"پارچه":7025,"ملاحظ":7026,"ونز":7027,"اسپانسر":7028,"شهري":7029,"دادگستری":7030,"خطای":7031,"ريزي":7032,"ه‌گیری":7033,"ترکمنستان":7034,"چیچ":7035,"تیتر":7036,"رایگان":7037,"مصالح":7038,"همیش":7039,"مركز":7040,"بهنام":7041,"رویم":7042,"مایش":7043,"یابند":7044,"خودی":7045,"زاه":7046,"مولد":7047,"ژو":7048,"نیمی":7049,"درنظر":7050,"برسانند":7051,"بنز":7052,"شهرام":7053,"آگو":7054,"ادف":7055,"پیامد":7056,"شنید":7057,"حسابر":7058,"68":7059,"دوری":7060,"نماید":7061,"رحیم":7062,"فقدان":7063,"استیضاح":7064,"منس":7065,"بریت":7066,"دوره‌ای":7067,"راکی":7068,"بخش‌هایی":7069,"بردارد":7070,"پوشاک":7071,"لیتر":7072,"حماس":7073,"ائو":7074,"ماهیت":7075,"عقد":7076,"تیک":7077,"چراغ":7078,"بانکه":7079,"۲۰۱۶":7080,"همین‌طور":7081,"غلبه":7082,"یونسکو":7083,"جنجالی":7084,"زمست":7085,"غلامی":7086,"برگزید":7087,"اوزان":7088,"كالا":7089,"قین":7090,"روحانیت":7091,"‌به‌":7092,"بدتر":7093,"سهراب":7094,"مراقبت":7095,"خراب":7096,"رفتارهای":7097,"اسط":7098,"سرشناس":7099,"بیری":7100,"in":7101,"شیان":7102,"و‌":7103,"نرخ‌های":7104,"نادری":7105,"مسؤولان":7106,"ارکان":7107,"فیلمنامه":7108,"اذعان":7109,"امیدی":7110,"قشر":7111,"اتریش":7112,"ضمانت":7113,"):":7114,"یان":7115,"الکس":7116,"به‌وجود":7117,"نوآوری":7118,"جدیدترین":7119,"تفکیک":7120,"صرافی":7121,"افتتاحیه":7122,"al":7123,"یوسف":7124,"تشی":7125,"اسبق":7126,"گيرند":7127,"گرجستان":7128,"مرمت":7129,"کرسی":7130,"حائ":7131,"متنوع":7132,"تابلو":7133,"مایل":7134,"زيرا":7135,"عروس":7136,"تازه‌ای":7137,"عالم":7138,"نجفی":7139,"قرضی":7140,"هشتمین":7141,"ئي":7142,"اتمی":7143,"آلات":7144,"رسمي":7145,"or":7146,"هت":7147,"همیشگی":7148,"یک‌بار":7149,"استعفای":7150,"جام‌جهانی":7151,"نظرسنجی":7152,"هنگامی":7153,"نتواند":7154,"نشوند":7155,"رویار":7156,"شیمیایی":7157,"مطلو":7158,"تعبیر":7159,"قامت":7160,"می‌كنند":7161,"محدودیت‌های":7162,"غیرمجاز":7163,"ایرانی‌ها":7164,"این‌بار":7165,"رسال":7166,"خلاقی":7167,"هزاران":7168,"کلاه":7169,"خم":7170,"ژیکی":7171,"سرمایه‌های":7172,"چیان":7173,"زارع":7174,"وگر":7175,"ستون":7176,"گوار":7177,"شهریورماه":7178,"اجماع":7179,"هواپي":7180,"کرا":7181,"تحصیلی":7182,"جايگاه":7183,"اواسط":7184,"بزنیم":7185,"به‌زودی":7186,"علیرغم":7187,"خانه‌":7188,"نمی‌توانم":7189,"تحرک":7190,"46":7191,"فرهنگستان":7192,"نکرده‌اند":7193,"راموس":7194,"دشت":7195,"دانیم":7196,"سپیدرود":7197,"مایه":7198,"مکزیک":7199,"سوئیس":7200,"ندهد":7201,"شماری":7202,"نهضت":7203,"تجسمی":7204,"پوگبا":7205,"on":7206,"سفرهای":7207,"توض":7208,"۱۳۹۵":7209,"تمجید":7210,"برایشان":7211,"تحت‌":7212,"پاش":7213,"احمدي":7214,"عقیده":7215,"مشهر":7216,"واژ":7217,"ستي":7218,"غری":7219,"باوجود":7220,"سرخی":7221,"آنهایی":7222,"کتاب‌":7223,"تذکر":7224,"پیامبر":7225,"ویسی":7226,"غیردولتی":7227,"بازماند":7228,"ه‌هايي":7229,"پژوهش‌های":7230,"زوئ":7231,"زمستانی":7232,"ساط":7233,"روسای":7234,"درصدد":7235,"مصرف‌کنندگان":7236,"56":7237,"شرکتهای":7238,"کتب":7239,"هجومی":7240,"FC":7241,"آنهاست":7242,"ww":7243,"1394":7244,"معطوف":7245,"غیرقابل":7246,"سمتی":7247,"ونزوئ":7248,"مجارستان":7249,"چس":7250,"پیشکسوتان":7251,"خلاق":7252,"بخورد":7253,"ینه":7254,"۸۵":7255,"لیک":7256,"شوک":7257,"شویی":7258,"کفش":7259,"درباره‌ی":7260,"فلان":7261,"می‌ها":7262,"کتاب‌ها":7263,"مطبوعاتی":7264,"دهيم":7265,"آخوندی":7266,"باخ":7267,"دانستند":7268,"زعفران":7269,"آنجایی":7270,"آواز":7271,"بازیهای":7272,"هامی":7273,"هال":7274,"نیام":7275,"مدرک":7276,"بازگشایی":7277,"تویی":7278,"87":7279,"کارگزاری":7280,"تبعی":7281,"گرفتار":7282,"سيستم":7283,"خودتان":7284,"افراطی":7285,"ده‌ها":7286,"ورزی":7287,"لک":7288,"مرتک":7289,"تضمینی":7290,"مجامع":7291,"۴۴":7292,"خیل":7293,"نگرش":7294,"تأكيد":7295,"بعدا":7296,"دوحه":7297,"ناامید":7298,"۳۳":7299,"برانگیز":7300,"منو":7301,"بلغ":7302,"واسط":7303,"نوامبر":7304,"ناظ":7305,"سلمان":7306,"نشان‌دهنده":7307,"وطن":7308,"آتش‌":7309,"شایعه":7310,"اقساط":7311,"افزودند":7312,"چمن":7313,"ذیل":7314,"خردادماه":7315,"وسایل":7316,"صبا":7317,"هرکدام":7318,"ست‌ها":7319,"متص":7320,"پروژه‌ها":7321,"نهايي":7322,"شمشیر":7323,"مرتضوی":7324,"سيد":7325,"يتي":7326,"ویتنام":7327,"همدلی":7328,"بازه":7329,"چيزي":7330,"وزرای":7331,"ترابی":7332,"پوستر":7333,"منعقد":7334,"انیمی":7335,"پیامی":7336,"سیسات":7337,"عناوین":7338,"باپه":7339,"مداخ":7340,"فان":7341,"المپيك":7342,"فیلمبرداری":7343,"مهره":7344,"شاف":7345,"برپایی":7346,"صاحب‌":7347,"ریفی":7348,"خن":7349,"کنندگی":7350,"رویارویی":7351,"اعتراف":7352,"دفاتر":7353,"کانی":7354,"ووشو":7355,"ضبط":7356,"يشه":7357,"جامعه‌":7358,"‌آبادی":7359,"آمریکای":7360,"فیلم‌هایی":7361,"‌الدین":7362,"‌شد":7363,"آيد":7364,"زنده‌":7365,"صعودی":7366,"کوتاه‌مدت":7367,"تغذ":7368,"باتوجه":7369,"اصولا":7370,"مجموعه‌ای":7371,"۵۵":7372,"بشار":7373,"بانکداری":7374,"بینداز":7375,"پرسی":7376,"ترکیبی":7377,"زیو":7378,"رقابتها":7379,"تالی":7380,"متخلف":7381,"شکنی":7382,"دامنه":7383,"پورتو":7384,"همای":7385,"اخباری":7386,"پژوهشکده":7387,"برن":7388,"افشار":7389,"اولوی":7390,"این‌رو":7391,"گذاشتیم":7392,"بشری":7393,"مردادماه":7394,"تعزی":7395,"دبير":7396,"آلی":7397,"اعدام":7398,"67":7399,"سلول":7400,"بچه‌های":7401,"مباد":7402,"ناچار":7403,"حزبی":7404,"تضعیف":7405,"عجیبی":7406,"بهترين":7407,"عق":7408,"محتوای":7409,"نمي‌شود":7410,"سیستان":7411,"جذابیت":7412,"شهرک":7413,"قوه‌":7414,"اير":7415,"شناسند":7416,"فرآورده‌های":7417,"ضریب":7418,"ماد":7419,"دره":7420,"‌آمیز":7421,"کاندیدای":7422,"اولین‌بار":7423,"حالی‌که":7424,"انحصار":7425,"ایستاده":7426,"دوچرخه":7427,"تفاهم‌نامه":7428,"یزدی":7429,"نخستين":7430,"حریم":7431,"حالیکه":7432,"پارلمان":7433,"ادبيات":7434,"تابستانی":7435,"نود":7436,"شعب":7437,"سوابق":7438,"اشعار":7439,"کرنر":7440,"ارزش‌های":7441,"رساندند":7442,"احراز":7443,"صورت‌":7444,"مغز":7445,"درخشانی":7446,"معصو":7447,"نقط":7448,"روزگار":7449,"گل‌های":7450,"مفاه":7451,"چان":7452,"نقص":7453,"واژه":7454,"حبس":7455,"موشک":7456,"بازدهی":7457,"گیرید":7458,"مخاب":7459,"مقدمات":7460,"دیدند":7461,"وات":7462,"ونزوئلا":7463,"مي‌توانند":7464,"بخشد":7465,"یادگار":7466,"كام":7467,"تأثیرگذار":7468,"بيت":7469,"فقیه":7470,"بدهی‌های":7471,"كوت":7472,"آموز":7473,"هیات‌":7474,"بهروز":7475,"نیاور":7476,"۱۳۹۶":7477,"آخرين":7478,"39":7479,"جاب":7480,"مطالبه":7481,"دك":7482,"اصلی‌ترین":7483,"مناق":7484,"ir":7485,"يسي":7486,"۱۴۰۰":7487,"سالگرد":7488,"47":7489,"ربیعی":7490,"درصدي":7491,"بنایی":7492,"انسجام":7493,"تهرانی":7494,"سطحی":7495,"فراگیر":7496,"پید":7497,"تأکيد":7498,"مديران":7499,"اسکی":7500,"يابد":7501,"هسته":7502,"۵۷":7503,"واگن":7504,"کتابی":7505,"ريال":7506,"گلر":7507,"زدهمین":7508,"توفیق":7509,"گمر":7510,"کره‌جنوبی":7511,"قراردادها":7512,"جست‌و":7513,"ترور":7514,"نکردن":7515,"تاجیک":7516,"سازوکار":7517,"پائ":7518,"‌آف":7519,"41":7520,"حامیان":7521,"بمان":7522,"جایگاهی":7523,"فرشاد":7524,"رمز":7525,"به‌نظر":7526,"گرند":7527,"es":7528,"مك":7529,"‌فارس":7530,"گفته‌اند":7531,"تدریس":7532,"اینستاگرام":7533,"بهره‌مند":7534,"دی‌":7535,"داده‌ایم":7536,"نك":7537,"2011":7538,"بردند":7539,"هیچ‌کس":7540,"نیت":7541,"مرتکب":7542,"انیمیشن":7543,"سنجش":7544,"امتح":7545,"دلا":7546,"پرهیز":7547,"کاربردی":7548,"ه‌زنی":7549,"بن‌":7550,"سریع‌تر":7551,"بخش‌ها":7552,"مساعد":7553,"۳۶":7554,"۳۷":7555,"ایلنا":7556,"واحدها":7557,"پاست":7558,"سامبر":7559,"ساعات":7560,"اسر":7561,"دلایلی":7562,"دسامبر":7563,"ردان":7564,"كشورهاي":7565,"قبولی":7566,"ديده":7567,"نمره":7568,"رامی":7569,"فروشندگان":7570,"دراین":7571,"تقو":7572,"تکنیک":7573,"خوانند":7574,"گزینی":7575,"پادشاه":7576,"هيچ‌":7577,"توقی":7578,"مقطعی":7579,"توماس":7580,"دست‌کم":7581,"ليل":7582,"ساختن":7583,"آمارها":7584,"محرم":7585,"شانزدهم":7586,"رخداد":7587,"‌آباد":7588,"دانش‌آموزان":7589,"فاصل":7590,"پیشی":7591,"سوالی":7592,"مملکت":7593,"کنگ":7594,"اکبری":7595,"59":7596,"مسیری":7597,"مصرف‌کننده":7598,"آن‌طور":7599,"سن‌":7600,"افتخارات":7601,"ar":7602,"ثالث":7603,"حسب":7604,"باقیمانده":7605,"يده":7606,"کسب‌وکار":7607,"بامداد":7608,"مصدا":7609,"انتها":7610,"حلال":7611,"نکنید":7612,"تسهيلات":7613,"متحمل":7614,"۳۲":7615,"ارتفاع":7616,"سروش":7617,"شناور":7618,"اباته":7619,"سازمان‌ها":7620,"اکتبر":7621,"43":7622,"سرود":7623,"دیاباته":7624,"ه‌شان":7625,"میلیونی":7626,"بني":7627,"برقی":7628,"داریوش":7629,"متقابل":7630,"سکان":7631,"آيت":7632,"ریی":7633,"استارت":7634,"ابتلا":7635,"میثم":7636,"کشاورز":7637,"۴۸":7638,"تحصیلات":7639,"پشت‌":7640,"دولی":7641,"بنوی":7642,"امینی":7643,"روستاها":7644,"تابع":7645,"به‌منظور":7646,"مایان":7647,"حبیب":7648,"بارش":7649,"جایز":7650,"واض":7651,"سیاست‌ها":7652,"التی":7653,"همتی":7654,"دربر":7655,"هدیه":7656,"حیل":7657,"به‌دست":7658,"جزایر":7659,"مسال":7660,"آنی":7661,"ه‌‌اند":7662,"درام":7663,"جهانبخش":7664,"نصیب":7665,"ييد":7666,"نتاي":7667,"مهاجمان":7668,"ماب":7669,"یمی":7670,"شریعتی":7671,"حراج":7672,"اوه‌":7673,"سیو":7674,"نتايج":7675,"به‌روز":7676,"انسان‌ها":7677,"ه‌ساز":7678,"سرمربیگری":7679,"عرصه‌های":7680,"توافقی":7681,"صرفه":7682,"عوام":7683,"سوارز":7684,"مکل":7685,"‌گیر":7686,"براین":7687,"گریزمان":7688,"دولتم":7689,"دیو":7690,"کارمندان":7691,"بگيرد":7692,"قرائت":7693,"شیری":7694,"52":7695,"مواقع":7696,"فلاح":7697,"ترانزی":7698,"سال‌هاست":7699,"بخشنامه":7700,"ببیند":7701,"عليه":7702,"سراسری":7703,"جمل":7704,"بازپرداخت":7705,"۳۸":7706,"‌زد":7707,"کارآمدی":7708,"ارج":7709,"خواستم":7710,"تحقيقات":7711,"رنگی":7712,"میلیاردی":7713,"فسکی":7714,"همکاري":7715,"فروند":7716,"تاکتیکی":7717,"تشکل‌های":7718,"گلایه":7719,"en":7720,"داشته‌ایم":7721,"کوچه":7722,"معدود":7723,"برنامه‌هاي":7724,"حاد":7725,"آمدم":7726,"نتوانستیم":7727,"عاب":7728,"حداکثری":7729,"بالاست":7730,"روانه":7731,"متغیر":7732,"شلو":7733,"آزادر":7734,"بیانیه‌ای":7735,"کسر":7736,"AFC":7737,"اریک":7738,"اتصال":7739,"سیزدهم":7740,"جزیی":7741,"نگي":7742,"سنجی":7743,"تمه":7744,"منفع":7745,"نتیجه‌ای":7746,"ئل":7747,"اصلاح‌طلبی":7748,"غایب":7749,"2010":7750,"آقایی":7751,"درخور":7752,"بارز":7753,"مرتبه":7754,"بازنشستگان":7755,"گوشه":7756,"ضایتی":7757,"مذاکره‌":7758,"ارا":7759,"مستقی":7760,"نجف":7761,"تهیه‌کننده":7762,"مکلف":7763,"سوءاستفاده":7764,"گفتیم":7765,"اماکن":7766,"انرژي":7767,"گفت‌وگویی":7768,"اکو":7769,"کاوه":7770,"هجدهم":7771,"72":7772,"شوخی":7773,"دواز":7774,"مسأ":7775,"کاربران":7776,"رویدادهای":7777,"هرمزگان":7778,"کودکی":7779,"ریاض":7780,"سازمانی":7781,"واردکنندگان":7782,"آزمایشگاه":7783,"فون":7784,"همه‌چیز":7785,"پژوهشي":7786,"پروازهای":7787,"54":7788,"ژنو":7789,"برسانیم":7790,"1400":7791,"نيروي":7792,"پورت":7793,"نهايت":7794,"کارایی":7795,"بازتاب":7796,"کاربرد":7797,"پایش":7798,"والن":7799,"عادلانه":7800,"اتهامات":7801,"۱۳۹۷":7802,"مولف":7803,"نامن":7804,"طاهری":7805,"انبوه":7806,"تناب":7807,"مزیت":7808,"اولا":7809,"موقعی":7810,"عرفان":7811,"اینچئون":7812,"بازگردد":7813,"گوشی":7814,"تهاجمی":7815,"سناری":7816,"نمی‌رسد":7817,"غیررسمی":7818,"کامیون":7819,"به‌طوری":7820,"خانوادگی":7821,"امکان‌پذیر":7822,"استدلال":7823,"نزولی":7824,"حفاری":7825,"زلات":7826,"شورای‌عالی":7827,"سکوی":7828,"گودرزی":7829,"شرايطي":7830,"پيگيري":7831,"78":7832,"نیافت":7833,"تاكيد":7834,"مأمور":7835,"حرکات":7836,"بيشتري":7837,"كيلوگرم":7838,"بیاورند":7839,"رهبران":7840,"ابوالفضل":7841,"نامناسب":7842,"خشم":7843,"سرمایه‌گذار":7844,"قانع":7845,"ذب":7846,"مائ":7847,"مسابقه‌های":7848,"غیرنفتی":7849,"ایثار":7850,"جنتی":7851,"شکی":7852,"بااین‌حال":7853,"فیروز":7854,"بازنشسته":7855,"معین":7856,"آت":7857,"63":7858,"جات":7859,"مبلغی":7860,"هاز":7861,"خانواده‌ها":7862,"دیپلماتیک":7863,"مسئولین":7864,"جنجال":7865,"بازده":7866,"دقیقی":7867,"نویسندگی":7868,"والي":7869,"کنيد":7870,"وگرنه":7871,"گله":7872,"رامین":7873,"سانی":7874,"هلندی":7875,"قانون‌":7876,"فشارهای":7877,"FAT":7878,"سواد":7879,"‌شناس":7880,"مواز":7881,"سازندگان":7882,"61":7883,"با‌":7884,"سوزی":7885,"FATF":7886,"حرف‌ها":7887,"یورویی":7888,"مبالغ":7889,"دونالد":7890,"سرمربي":7891,"فریاد":7892,"فلزات":7893,"كمتر":7894,"منصف":7895,"پارسی":7896,"آيت‌الله":7897,"می‌دانید":7898,"‌‌‌‌‌‌‌‌‌‌‌‌‌‌‌‌":7899,"وینی":7900,"فيت":7901,"ابلاغی":7902,"کمک‌های":7903,"سلس":7904,"ظم‌":7905,"دستي":7906,"میزی":7907,"مزایای":7908,"می‌کشد":7909,"طرفه":7910,"فروشند":7911,"نارضایتی":7912,"می‌ز":7913,"انبا":7914,"پيروزي":7915,"سرخیو":7916,"بهینه":7917,"توضیحات":7918,"نرو":7919,"خير":7920,"آماده‌سازی":7921,"ناطق":7922,"صفی":7923,"ژوزه":7924,"ملت‌ها":7925,"الدحیل":7926,"انجام‌شده":7927,"معافیت":7928,"نشدند":7929,"الیز":7930,"دوچرخ":7931,"محوریت":7932,"شكست":7933,"گمرکی":7934,"مستندات":7935,"اثرگذار":7936,"عبدی":7937,"مشاوران":7938,"نامش":7939,"استمر":7940,"وضعیتی":7941,"انداخ":7942,"پرداختن":7943,"محوری":7944,"برادران":7945,"مهدي":7946,"روابط‌":7947,"جیم":7948,"برلین":7949,"قلعه‌":7950,"بدیهی":7951,"والنسیا":7952,"هازارد":7953,"بندرعباس":7954,"فاین":7955,"معاونان":7956,"تيب":7957,"ترجم":7958,"چلو":7959,"جمشید":7960,"ويژ":7961,"يش":7962,"اهدای":7963,"مقص":7964,"نابرا":7965,"سئ":7966,"گشود":7967,"تساب":7968,"قدیم":7969,"می‌باشد":7970,"رده‌های":7971,"فیلم‌":7972,"زیارت":7973,"عازم":7974,"۳۴":7975,"همسای":7976,"سوق":7977,"ترافیک":7978,"آن‌هم":7979,"آذری":7980,"سرباز":7981,"كردم":7982,"بنیادی":7983,"استمرار":7984,"مورخ":7985,"تمر":7986,"کیم":7987,"استرس":7988,"فرمول":7989,"توقیف":7990,"باستانی":7991,"ممكن":7992,"فرهادی":7993,"طبيعي":7994,"حقوق‌":7995,"فولادی":7996,"وقفه":7997,"زاوی":7998,"شبا":7999,"غفوری":8000,"گزینه‌های":8001,"شفی":8002,"نمی‌آید":8003,"لینگ":8004,"شهروندی":8005,"خدماتی":8006,"رفسنجان":8007,"گویند":8008,"لوح":8009,"سوس":8010,"موکول":8011,"بدهید":8012,"مبادله":8013,"مگاو":8014,"سپرده‌های":8015,"بیژن":8016,"نمی‌دهند":8017,"بلغارستان":8018,"مهرام":8019,"فونی":8020,"آسیب‌های":8021,"نمی‌کنیم":8022,"وفق":8023,"گسترده‌ای":8024,"می‌توانید":8025,"خانواده‌های":8026,"بختیاری":8027,"درآمده":8028,"علاوه‌":8029,"امتحان":8030,"ملاک":8031,"ملاحظه":8032,"53":8033,"تلفنی":8034,"دارا":8035,"فصلی":8036,"ترخیص":8037,"جواز":8038,"معمولی":8039,"اسپور":8040,"دكتر":8041,"نیوز":8042,"آفتاب":8043,"آنتو":8044,"اندرکاران":8045,"خاری":8046,"پرونده‌های":8047,"طبعا":8048,"جالبی":8049,"داوود":8050,"طالبان":8051,"به‌های":8052,"احمدي‌نژاد":8053,"‌داران":8054,"متهمان":8055,"تبع":8056,"حاب":8057,"روبر":8058,"اتوری":8059,"روزبه":8060,"نباشند":8061,"رابی":8062,"دیجیتال":8063,"ریزش":8064,"درعین":8065,"پویا":8066,"بانکها":8067,"‌وجه":8068,"وزرا":8069,"دهک":8070,"یخ":8071,"اضي":8072,"ندادند":8073,"کلمبیا":8074,"ولایت":8075,"اردبیل":8076,"تشکيل":8077,"حائز":8078,"عملكرد":8079,"۲۰۱۹":8080,"پاییز":8081,"حساب‌های":8082,"احتساب":8083,"پايين":8084,"دولتمردان":8085,"داراي":8086,"سمنان":8087,"مي‌دهند":8088,"آب‌های":8089,"بازارها":8090,"نشری":8091,"ال‌":8092,"توضيح":8093,"شاری":8094,"کرج":8095,"نشستی":8096,"کمپانی":8097,"حیاتی":8098,"مي‌رود":8099,"اسدی":8100,"عکاسی":8101,"دستگیر":8102,"بداند":8103,"معضلات":8104,"صنف":8105,"حرکتی":8106,"ریکا":8107,"گیاه":8108,"تحریک":8109,"کشتی‌گیران":8110,"نصف":8111,"انتصاب":8112,"اورتون":8113,"ست‌های":8114,"واضح":8115,"وحشت":8116,"برآورده":8117,"بلكه":8118,"»؛":8119,"64":8120,"کماکان":8121,"مؤلف":8122,"عزیزی":8123,"ترسیم":8124,"روشنی":8125,"قوان":8126,"بزنم":8127,"جنوبي":8128,"ظرفيت":8129,"پيش‌بيني":8130,"آزادراه":8131,"اعظم":8132,"پاسخ‌":8133,"در‌حال":8134,"یورگن":8135,"جیب":8136,"فاتح":8137,"شأ":8138,"زیرزمینی":8139,"سانه":8140,"باقي":8141,"شوروی":8142,"شخصا":8143,"جریان‌های":8144,"1395":8145,"ناراحتی":8146,"قش":8147,"واليبال":8148,"فند":8149,"بیاوریم":8150,"اولویت‌های":8151,"اچ":8152,"لوت":8153,"پژمان":8154,"۲۰۱۴":8155,"بغداد":8156,"فدراسیون‌ها":8157,"ایرج":8158,"نمي‌توان":8159,"اطلاعیه":8160,"فرشید":8161,"نشاط":8162,"جاذ":8163,"پی‌":8164,"130":8165,"ارن":8166,"تقی":8167,"تاريخي":8168,"عقلانی":8169,"رسمیت":8170,"امير":8171,"شهرت":8172,"فاضلاب":8173,"مقداری":8174,"شش‌":8175,"جنایت":8176,"سازمان‌":8177,"شخصیتی":8178,"ژي":8179,"عبارتی":8180,"آژاکس":8181,"می‌بینید":8182,"گرای":8183,"اهميت":8184,"می‌بیند":8185,"برنامه‌ريزي":8186,"ملکی":8187,"دانشمندان":8188,"دیلی":8189,"مخصوصا":8190,"گرت":8191,"نظریه":8192,"آوریل":8193,"مصارف":8194,"صحبتی":8195,"فروشنده":8196,"اوش":8197,"برداران":8198,"نفتي":8199,"کشتی‌گیر":8200,"تبعیض":8201,"ti":8202,"رج":8203,"مذاکراتی":8204,"73":8205,"ه‌سازان":8206,"ابتکار":8207,"برکنار":8208,"اقض":8209,"ایستگاه":8210,"نیمه‌نهایی":8211,"بیانگر":8212,"قائم‌":8213,"هایشان":8214,"کارآفرینی":8215,"خالص":8216,"سیام":8217,"سوسی":8218,"پايي":8219,"مابقی":8220,"شهاب":8221,"‌گرایی":8222,"گشته":8223,"مسوولیت":8224,"پدرم":8225,"49":8226,"اشکان":8227,"مداخله":8228,"مخابرات":8229,"گنجی":8230,"ترك":8231,"دردسر":8232,"جایگزینی":8233,"رمانه":8234,"اجتناب":8235,"درونی":8236,"‌کار":8237,"رهن":8238,"شدیدی":8239,"منام":8240,"جرا":8241,"۶۰۰":8242,"تحلیلگران":8243,"اقلیم":8244,"پردازی":8245,"ميزبان":8246,"تجاوز":8247,"الزامات":8248,"وني":8249,"یکباره":8250,"شهریار":8251,"مفاد":8252,"62":8253,"فاکتور":8254,"منظم":8255,"ذی‌":8256,"شنیدن":8257,"51":8258,"نيروهاي":8259,"مضاع":8260,"درمورد":8261,"نکردیم":8262,"انکار":8263,"بکشد":8264,"حجاب":8265,"سارا":8266,"فدا":8267,"نمایشگاه‌های":8268,"قطبی":8269,"ان‌شاءالله":8270,"تندیس":8271,"لوئیس":8272,"فرانک":8273,"پانزدهم":8274,"اتوم":8275,"شاهنامه":8276,"کونته":8277,"هفت‌":8278,"کارشان":8279,"دارویی":8280,"اربعین":8281,"‌از":8282,"کوچکی":8283,"سلان":8284,"عظیمی":8285,"تغذیه":8286,"مولانا":8287,"حاضران":8288,"اسکوچیچ":8289,"نقاش":8290,"خیز":8291,"حسنه":8292,"دیگو":8293,"کفا":8294,"بهم":8295,"قضائيه":8296,"تامين":8297,"فشرده":8298,"اسح":8299,"140":8300,"فیلد":8301,"اصولگرایی":8302,"ماشین‌سازی":8303,"ارترین":8304,"شایستگی":8305,"اصولی":8306,"ثیرات":8307,"پهلوان":8308,"حسابرسی":8309,"هوشی":8310,"شکن":8311,"جداگانه":8312,"ایات":8313,"هیچ‌گونه":8314,"كاران":8315,"نوش":8316,"سادگی":8317,"تعقی":8318,"سیدمحمد":8319,"نیامده":8320,"جغرافیایی":8321,"کشیدن":8322,"برعکس":8323,"کرم":8324,"۸۸":8325,"پیا‌م":8326,"گیل":8327,"مظاهری":8328,"سرپرستی":8329,"آفر":8330,"انگل":8331,"ادوار":8332,"اتکا":8333,"کوک":8334,"باند":8335,"بمانند":8336,"خرم":8337,"فرستاده":8338,"دوچرخه‌":8339,"نیامد":8340,"سخت‌تر":8341,"کیهان":8342,"ارتمان":8343,"اعی":8344,"اروس":8345,"شناسد":8346,"حاش":8347,"رفتاری":8348,"فارغ‌ال":8349,"زدم":8350,"هندو":8351,"خلیج‌فارس":8352,"حاک":8353,"غیب":8354,"سانتر":8355,"وسیع":8356,"هواپیماهای":8357,"می‌گوییم":8358,"تسلیم":8359,"شیاط":8360,"لژ":8361,"مصداق":8362,"وود":8363,"توط":8364,"صادرکننده":8365,"مکتو":8366,"انده":8367,"صمت":8368,"آسیای":8369,"اختلال":8370,"هیأت‌":8371,"اصحاب":8372,"گفتار":8373,"نکردم":8374,"يدي":8375,"نظران":8376,"محي":8377,"پاشی":8378,"چیزهایی":8379,"شیاطین":8380,"مطلوبی":8381,"بازیکنانم":8382,"غزل":8383,"شیلی":8384,"مشروط":8385,"راستی":8386,"تطبی":8387,"خري":8388,"ملزم":8389,"مديرعامل":8390,"جلوه":8391,"نورال":8392,"پاسداران":8393,"قاد":8394,"تجاري":8395,"بانک‌":8396,"می‌بر":8397,"کوب":8398,"شواهد":8399,"فعاليت‌هاي":8400,"النصر":8401,"اشتی":8402,"قطری":8403,"پيشر":8404,"نفی":8405,"هستی":8406,"نمی‌کرد":8407,"تازه‌ترین":8408,"مشاوره":8409,"حین":8410,"اتحاديه":8411,"امباپه":8412,"این‌ها":8413,"محمودی":8414,"سلیمی":8415,"ابری":8416,"زدی":8417,"انجمن‌های":8418,"ثروتمند":8419,"دوجانبه":8420,"دانه":8421,"مفاهیم":8422,"تایپه":8423,"بریتانیا":8424,"همایون":8425,"درنهایت":8426,"کوتی":8427,"بهره‌گیری":8428,"بنزما":8429,"رضو":8430,"کومان":8431,"توسعه‌ای":8432,"موضوعاتی":8433,"قدرت‌های":8434,"قطب":8435,"۶۷":8436,"مکرر":8437,"250":8438,"شل":8439,"بازيك":8440,"ارمغان":8441,"تصدی":8442,"بابا":8443,"استانبول":8444,"شأن":8445,"شکوه":8446,"ازاده":8447,"سج":8448,"کووید":8449,"انگشت":8450,"ساکن":8451,"فال":8452,"فهمی":8453,"ایلام":8454,"هیچ‌کدام":8455,"سوالات":8456,"دغدغه‌های":8457,"متصل":8458,"صدها":8459,"شیرازی":8460,"برون‌":8461,"انحراف":8462,"کارآفرین":8463,"69":8464,"تبل":8465,"مداوم":8466,"شرکتی":8467,"جدیت":8468,"هدر":8469,"چشمگیر":8470,"بزرگ‌تر":8471,"مبانی":8472,"طینی":8473,"مکات":8474,"فریدون":8475,"وکی":8476,"نامزدها":8477,"چيز":8478,"ایی‌ها":8479,"تمرين":8480,"باع":8481,"داستان‌":8482,"علامه":8483,"کاربری":8484,"باقی‌مانده":8485,"ببند":8486,"محیط‌":8487,"اپور":8488,"پارا":8489,"ارتقاء":8490,"صریح":8491,"تاكنون":8492,"دی‌ماه":8493,"اسلح":8494,"چشمگیری":8495,"پرافت":8496,"....":8497,"هر‌":8498,"می‌آمد":8499,"فلسطینی":8500,"مغایر":8501,"ضه":8502,"مستق":8503,"تسریع":8504,"قوانين":8505,"79":8506,"به‌جز":8507,"هاشم":8508,"ايل":8509,"چهارد":8510,"پایبند":8511,"گناه":8512,"اردوها":8513,"معظم‌":8514,"برکناری":8515,"استن":8516,"دینگ":8517,"نجو":8518,"‌سازي":8519,"تمندی":8520,"ابن":8521,"پیست":8522,"شکو":8523,"شاگردانش":8524,"سخنانش":8525,"شیعه":8526,"هیچ‌وقت":8527,"۶۸":8528,"موازی":8529,"رسالت":8530,"‌رسان":8531,"خواسته‌های":8532,"کمدی":8533,"توضیحاتی":8534,"مونا":8535,"فضاهای":8536,"مجال":8537,"به‌تازگی":8538,"قلعه‌نویی":8539,"مقال":8540,"بدان":8541,"نرم‌افزار":8542,"لژیون":8543,"حي":8544,"جمع‌بندی":8545,"حاتمی":8546,"لیف":8547,"تماشایی":8548,"مجه":8549,"شبی":8550,"پدرش":8551,"جواه":8552,"تفاوتی":8553,"انی‌ها":8554,"عانات":8555,"داستان‌های":8556,"موسوم":8557,"مأموری":8558,"جیمز":8559,"محمو":8560,"عزیزان":8561,"ماموریت":8562,"اختتا":8563,"ولت":8564,"کمکی":8565,"بلژیکی":8566,"1390":8567,"کولا":8568,"نیم‌فصل":8569,"اينها":8570,"دگر":8571,"اساتی":8572,"خند":8573,"نمی‌گیرد":8574,"وئل":8575,"تعاملات":8576,"ملا":8577,"فعالیت‌ها":8578,"اقیانو":8579,"ربطی":8580,"بساز":8581,"۷۰۰":8582,"هوی":8583,"۷۴":8584,"می‌افزاید":8585,"نمادهای":8586,"پرش":8587,"تجار":8588,"كارشناس":8589,"نویسد":8590,"می‌پردازند":8591,"سعد":8592,"رأس":8593,"سياست‌هاي":8594,"بازيكنان":8595,"قاي":8596,"۸۰۰":8597,"جابه‌جایی":8598,"آدم‌ها":8599,"اعلامی":8600,"قند":8601,"لزو":8602,"باني":8603,"سعاد":8604,"چشمه":8605,"آوریم":8606,"‌کنند":8607,"امثال":8608,"كسي":8609,"مامور":8610,"احتیاج":8611,"شیت":8612,"جلیلی":8613,"تحسین":8614,"رسيدگي":8615,"بنگاه‌ها":8616,"82":8617,"ضي":8618,"۲۰۱۵":8619,"مهم‌ترين":8620,"ميني":8621,"منوط":8622,"هرکس":8623,"رقبا":8624,"کاهشی":8625,"همدیگر":8626,"کارفرمایان":8627,"معلولان":8628,"اشار":8629,"ایشی":8630,"بهزاد":8631,"فرزاد":8632,"عمده‌ای":8633,"تصو":8634,"آیی":8635,"‌بخش":8636,"کاظم":8637,"علوی":8638,"دومی":8639,"زلاتان":8640,"می‌رساند":8641,"دریان":8642,"شاخه":8643,"اجباری":8644,"لید":8645,"کشتار":8646,"یووه":8647,"ظلم":8648,"محورهای":8649,"منشا":8650,"بالاد":8651,"غفل":8652,"ژیمن":8653,"علی‌اکبر":8654,"71":8655,"کالی":8656,"تدارک":8657,"شیعی":8658,"رییسه":8659,"تی‌":8660,"تمایلی":8661,"۶۶":8662,"اینک":8663,"اگه":8664,"شگفتی":8665,"تجارب":8666,"بحث‌های":8667,"دائم":8668,"مخدر":8669,"آزار":8670,"ترتيب":8671,"خلاقیت":8672,"بري":8673,"توزي":8674,"کشتي":8675,"وینگر":8676,"انصاف":8677,"صب":8678,"نمی‌شوند":8679,"جویان":8680,"ابو":8681,"اجرائي":8682,"ناگهان":8683,"شاي":8684,"پیشبرد":8685,"دیوید":8686,"فناوري":8687,"چسب":8688,"بازنده":8689,"معت":8690,"خبرهای":8691,"علی‌رغم":8692,"دعا":8693,"تاثیری":8694,"ریل":8695,"کميسيون":8696,"اسحاق":8697,"بویژه":8698,"قار":8699,"قریب":8700,"گاد":8701,"مى":8702,"ابانی":8703,"شایان":8704,"تاجیکستان":8705,"منتفی":8706,"حاج‌":8707,"ایوانکوویچ":8708,"انداخته":8709,"نداری":8710,"اقوام":8711,"الملل":8712,"مظلو":8713,"تأييد":8714,"سالن‌های":8715,"سومی":8716,"مارکا":8717,"اختتامیه":8718,"می‌بینند":8719,"وریا":8720,"می‌خواند":8721,"بودید":8722,"كوچ":8723,"تراکنش":8724,"لطمه":8725,"وج":8726,"به‌راحتی":8727,"سنگاپور":8728,"عیار":8729,"سازندگی":8730,"قواعد":8731,"پیامدهای":8732,"كره":8733,"ونگ":8734,"پاسخگو":8735,"کروات":8736,"پتروش":8737,"هميشه":8738,"کورو":8739,"خدای":8740,"نيم":8741,"ورزش‌های":8742,"ترانه":8743,"خودر":8744,"می‌آورند":8745,"اعطا":8746,"پروسه":8747,"می‌گذارند":8748,"زياد":8749,"‌گذاري":8750,"مناظره":8751,"یکسری":8752,"خورشیدی":8753,"نهمین":8754,"فعلي":8755,"بام":8756,"مگاوات":8757,"قلمداد":8758,"قرقی":8759,"خدایی":8760,"حسابی":8761,"یادشده":8762,"خنده":8763,"گرگان":8764,"دستوری":8765,"بازاریابی":8766,"فوریه":8767,"قاط":8768,"ایدئ":8769,"مقدمه":8770,"صدرنشینی":8771,"عموما":8772,"نماند":8773,"کاملاً":8774,"خاموش":8775,"شریفی":8776,"احساسات":8777,"زیبای":8778,"تصادف":8779,"ماليات":8780,"تشکیلات":8781,"واتر":8782,"انعقاد":8783,"تونس":8784,"معاد":8785,"سنگر":8786,"مکتب":8787,"نوبل":8788,"بگویید":8789,"اسکناس":8790,"81":8791,"ولای":8792,"سالیان":8793,"تینگ":8794,"فناوری‌های":8795,"روابط‌عمومی":8796,"حقوقي":8797,"‌داری":8798,"بانوی":8799,"بی‌توجهی":8800,"بگیرید":8801,"نوکمپ":8802,"استانداری":8803,"شال":8804,"روزهاي":8805,"پاسخگویی":8806,"ضعی":8807,"یوفا":8808,"اصفهانی":8809,"عسگری":8810,"سولس":8811,"ارسلان":8812,"وبی":8813,"راننده":8814,"فرماندهی":8815,"دریاچه":8816,"یازده":8817,"توافقات":8818,"امان":8819,"برنامه‌هایی":8820,"بازیکنانش":8821,"شعارهای":8822,"رستمی":8823,"سیگار":8824,"کیانی":8825,"دير":8826,"انفجار":8827,"بلد":8828,"شفیعی":8829,"غرا":8830,"نگیرد":8831,"اساتید":8832,"بین‌":8833,"رفیعی":8834,"هفدهم":8835,"لايحه":8836,"رابط":8837,"سیاستگذاری":8838,"باشی":8839,"سجادی":8840,"تشییع":8841,"گذراند":8842,"مزایده":8843,"سوريه":8844,"ماراد":8845,"زانو":8846,"نابود":8847,"درهای":8848,"علل":8849,"سلطان":8850,"مسأله":8851,"حريف":8852,"تعقیب":8853,"میعانات":8854,"غزه":8855,"تاش":8856,"ملحق":8857,"خانوارهای":8858,"آزادي":8859,"تکمیلی":8860,"اسرایی":8861,"کردی":8862,"بکند":8863,"تعارض":8864,"ایرلاین":8865,"نزديک":8866,"کوی":8867,"محمدباقر":8868,"حزب‌الله":8869,"نیجری":8870,"گذارید":8871,"ورامین":8872,"ذات":8873,"اعتمادی":8874,"بعداز":8875,"وفایی":8876,"تدابیر":8877,"نشده‌اند":8878,"اسکان":8879,"كوتاه":8880,"همايش":8881,"منا":8882,"كسی":8883,"منصفانه":8884,"زاویه":8885,"لد":8886,"سولسشر":8887,"موعد":8888,"900":8889,"فروخت":8890,"توزيع":8891,"ده‌":8892,"کارم":8893,"پنجاه":8894,"کرديم":8895,"جناحی":8896,"اتومبیل":8897,"سیستم‌های":8898,"اجتماع":8899,"رفته‌اند":8900,"غرفه":8901,"ستایش":8902,"هیچ‌وجه":8903,"کاندیداهای":8904,"جلوتر":8905,"پاسخ‌گو":8906,"بستن":8907,"رایج":8908,"روزهایی":8909,"اسلحه":8910,"خستگی":8911,"مسدود":8912,"هجوم":8913,"آندره":8914,"اروگو":8915,"نفت‌":8916,"جرائم":8917,"آنتونیو":8918,"غیرمستقیم":8919,"غفلت":8920,"۵۸":8921,"تشریف":8922,"افتخاری":8923,"داوطلبان":8924,"برگزیدگان":8925,"بلات":8926,"نبودیم":8927,"رسیده‌اند":8928,"نامزدی":8929,"1391":8930,"غریب":8931,"ادارات":8932,"پرز":8933,"آوردیم":8934,"کریست":8935,"الیست":8936,"فروشان":8937,"تسلط":8938,"اکتشاف":8939,"جمال":8940,"‌ی‌":8941,"پسران":8942,"مشکوک":8943,"بازي‌هاي":8944,"پذیریم":8945,"ت‌ا":8946,"دلالان":8947,"موفقیت‌های":8948,"قایقرانی":8949,"ابهامات":8950,"رشید":8951,"بالاتری":8952,"اندازد":8953,"دکتری":8954,"‌ناپذیر":8955,"خرمشهر":8956,"زبانی":8957,"باهنر":8958,"مراد":8959,"مکمل":8960,"پتروشيمي":8961,"رودری":8962,"بناهای":8963,"بدهکار":8964,"ساکت":8965,"واجد":8966,"چهاردهم":8967,"بلاروس":8968,"طراحي":8969,"قایی":8970,"برناب":8971,"اردوغان":8972,"‌تان":8973,"واقعه":8974,"صرفه‌":8975,"بوندسلیگا":8976,"شایعاتی":8977,"اناری":8978,"تاثیرگذاری":8979,"می‌توانستیم":8980,"رگ":8981,"کيلوگرم":8982,"فرمودند":8983,"مارتی":8984,"منتشرشده":8985,"آمده‌اند":8986,"تیمم":8987,"83":8988,"نیاورد":8989,"بانکي":8990,"شركت‌هاي":8991,"منسجم":8992,"فقره":8993,"دیدنی":8994,"جانبازان":8995,"پیمانکاران":8996,"ستری":8997,"رافت":8998,"گردهم":8999,"جشنواره‌های":9000,"سيل":9001,"روان‌":9002,"هایم":9003,"دستان":9004,"کنده":9005,"مارادونا":9006,"بنشی":9007,"محله":9008,"برنابئو":9009,"لیان":9010,"بیرونی":9011,"انتقام":9012,"می‌کش":9013,"می‌خواستند":9014,"مقتدر":9015,"مخصوص":9016,"ندگي":9017,"غرور":9018,"زرا":9019,"پهلوی":9020,"بوده‌ایم":9021,"عملکردی":9022,"مبارکه":9023,"۷۷":9024,"ه‌داری":9025,"مسلما":9026,"کفاشیان":9027,"لیبی":9028,"متکی":9029,"اهتمام":9030,"شیب":9031,"خسروی":9032,"ایران‌خودرو":9033,"رؤسای":9034,"۶۴":9035,"عربستانی":9036,"کاوش":9037,"آستان":9038,"فروشد":9039,"کاشان":9040,"راژ":9041,"حکمت":9042,"بخند":9043,"شرکت‌هاي":9044,"درآورد":9045,"مراقب":9046,"نوعي":9047,"استعدادهای":9048,"زرین":9049,"خشن":9050,"غالب":9051,"توج":9052,"اعداد":9053,"ساحل":9054,"بازگرداندن":9055,"کوار":9056,"چمپی":9057,"سال‌جاری":9058,"ندهند":9059,"بریل":9060,"قطعاً":9061,"شبه‌":9062,"خوراکی":9063,"کاندیداها":9064,"حکمی":9065,"بودج":9066,"تأخیر":9067,"تارت":9068,"مجموعه‌های":9069,"پیشنهادات":9070,"بم":9071,"قدو":9072,"مي‌آيد":9073,"‌ساله":9074,"محاک":9075,"لوای":9076,"تحليل":9077,"مقام‌":9078,"ریاضی":9079,"توم":9080,"خيص":9081,"تضاد":9082,"بیمه‌ای":9083,"صدم":9084,"2008":9085,"کشیدند":9086,"الکساندر":9087,"اوليه":9088,"استفاد":9089,"هرکسی":9090,"اسیر":9091,"چادر":9092,"فتنه":9093,"منوچهر":9094,"کره‌ای":9095,"پنجه":9096,"‌این":9097,"موم":9098,"لزم":9099,"انساني":9100,"روستای":9101,"ندیده":9102,"طبقات":9103,"همسرش":9104,"&#":9105,"تخم‌":9106,"بدنسازی":9107,"نبودم":9108,"نكته":9109,"1396":9110,"لاز":9111,"بودجه‌ای":9112,"افزایشی":9113,"مستلزم":9114,"صحبت‌هایی":9115,"ایستادگی":9116,"حوزه‌ها":9117,"ظی":9118,"اسلو":9119,"افشا":9120,"متعارف":9121,"برایتون":9122,"سلیقه":9123,"زیرمجموعه":9124,"صیانت":9125,"افتادن":9126,"تیم‌هایی":9127,"نینی":9128,"رحمت":9129,"عاشورا":9130,"می‌نویسد":9131,"میلیاردتومان":9132,"کوتینیو":9133,"دهندگان":9134,"ياران":9135,"غلامحسین":9136,"قائم‌مقام":9137,"مطهر":9138,"صدام":9139,"بی‌کاری":9140,"محاکمه":9141,"هزینه‌ای":9142,"مقاطع":9143,"گونی":9144,"آثارش":9145,"عبارتند":9146,"غانی":9147,"دهقان":9148,"کاسته":9149,"لشکر":9150,"ناند":9151,"یک‌سری":9152,"فیلیپین":9153,"توازن":9154,"دموکرات":9155,"قرقیزستان":9156,"ارزهای":9157,"استعلام":9158,"شریک":9159,"پائولو":9160,"متعادل":9161,"نشریات":9162,"سودآوری":9163,"اشرف":9164,"‌گرفتن":9165,"رویا":9166,"قرارگاه":9167,"رودخانه":9168,"سازماندهی":9169,"بازگشته":9170,"عنایت":9171,"توئی":9172,"مي‌کنم":9173,"یک‌سال":9174,"حدیث":9175,"بیماری‌های":9176,"مادری":9177,"فارابی":9178,"آفریقای":9179,"نمی‌خواهم":9180,"کاشی":9181,"تجربه‌":9182,"خانوارها":9183,"كرديم":9184,"بسكت":9185,"قضائي":9186,"عبادی":9187,"درعین‌حال":9188,"۹۱":9189,"شهرستان‌ها":9190,"صوتی":9191,"بسا":9192,"۸۴":9193,"داوید":9194,"تعريف":9195,"۱۳۹۴":9196,"بسكتبال":9197,"عنصر":9198,"هوشنگ":9199,"‌زده":9200,"متولیان":9201,"ناگهانی":9202,"كامل":9203,"‌دستی":9204,"مصبا":9205,"رومانی":9206,"ایده‌":9207,"برمی":9208,"العین":9209,"معیشتی":9210,"ئن":9211,"فراه":9212,"گل‌گهر":9213,"PS":9214,"بلندی":9215,"ولادی":9216,"آلوده":9217,"کارمزد":9218,"هم‌چنین":9219,"حاف":9220,"تناسب":9221,"ندا":9222,"حکومتی":9223,"بُ":9224,"دخانی":9225,"انتری":9226,"./":9227,"معارف":9228,"عیسی":9229,"طبع":9230,"بید":9231,"كارگردان":9232,"درآمدها":9233,"سیاوش":9234,"رانندگی":9235,"سیامک":9236,"سیه":9237,"درباره‌ي":9238,"خزان":9239,"یادم":9240,"هزينه‌هاي":9241,"زمز":9242,"دیدگاه‌های":9243,"برخورداری":9244,"ستاره‌های":9245,"رونا":9246,"نشست‌های":9247,"آموخت":9248,"فتحی":9249,"والورده":9250,"شهرداري":9251,"آدرس":9252,"کاردی":9253,"راتیک":9254,"شناخته‌شده":9255,"کنشی":9256,"نیکو":9257,"۴۲":9258,"خبري":9259,"تيم‌هاي":9260,"ورنتی":9261,"2000":9262,"سیمرغ":9263,"اشتباهی":9264,"تاسیسات":9265,"لوي":9266,"خورشید":9267,"جزییات":9268,"دلم":9269,"ملو":9270,"ژاوی":9271,"خوشن":9272,"به‌همین‌":9273,"منطبق":9274,"ارزيابي":9275,"بخواهم":9276,"دیپلمات":9277,"حوض":9278,"رکاب":9279,"پیگیری‌های":9280,"شوراهای":9281,"جست‌وجو":9282,"ترانزیت":9283,"غیرا":9284,"گل‌محمدی":9285,"رجایی":9286,"فرهنگسرای":9287,"واگذاري":9288,"کوین":9289,"منهای":9290,"مسلط":9291,"وقایع":9292,"۱۵۰":9293,"گفت‌و‌گو":9294,"كید":9295,"مي‌کنيم":9296,"سیاستی":9297,"مقاي":9298,"بکار":9299,"سري":9300,"صاف":9301,"امامی":9302,"مبني":9303,"بايجان":9304,"علمیه":9305,"نیاید":9306,"میرزایی":9307,"بفرست":9308,"زنیت":9309,"صداقت":9310,"شمش":9311,"ستد":9312,"گردید":9313,"ي‌که":9314,"شیوه‌های":9315,"رشدی":9316,"شهيد":9317,"هموار":9318,"فرقی":9319,"یکپارچه":9320,"سالروز":9321,"همینطور":9322,"صمد":9323,"آبان‌ماه":9324,"ناکی":9325,"پروین":9326,"فیلمساز":9327,"بدو":9328,"كمی":9329,"كيل":9330,"اخطار":9331,"رسيدن":9332,"ناقص":9333,"تصرف":9334,"غیاب":9335,"ساخت‌و":9336,"تلفیق":9337,"طالقانی":9338,"مراکش":9339,"حول":9340,"منتظری":9341,"شجریان":9342,"خواهر":9343,"دایر":9344,"اسبی":9345,"ترغیب":9346,"بی‌سابقه":9347,"چاره‌ای":9348,"!»":9349,"بطور":9350,"الجزایر":9351,"کنوان":9352,"تئوری":9353,"انوش":9354,"تود":9355,"پاسخی":9356,"صیر":9357,"کشاورزي":9358,"بیمه‌":9359,"يک‌":9360,"تعمی":9361,"نقدي":9362,"نکته‌ای":9363,"مستقيم":9364,"مکتوب":9365,"نمانده":9366,"تماشاخ":9367,"اتلتیکومادرید":9368,"پیرو":9369,"ياي":9370,"آذربايجان":9371,"‌هایشان":9372,"مجهز":9373,"سحر":9374,"کرمانی":9375,"آیت‌ا":9376,"استوار":9377,"مذاکره‌کننده":9378,"ببینم":9379,"تارتار":9380,"رتبه‌":9381,"سايت":9382,"بیایی":9383,"ویس":9384,"هفته‌ای":9385,"۸۶":9386,"انتقادی":9387,"راث":9388,"غیره":9389,"محال":9390,"واقعي":9391,"انضباط":9392,"مبارزات":9393,"گلزنان":9394,"نما":9395,"خوشی":9396,"پذي":9397,"غدیر":9398,"دانش‌بنیان":9399,"جهت‌":9400,"احس":9401,"پذیرند":9402,"دانمارک":9403,"بررسی‌ها":9404,"ويل":9405,"سعي":9406,"صورت‌گرفته":9407,"بازبینی":9408,"ه‌گذاری":9409,"بدر":9410,"دوام":9411,"لیگ‌":9412,"جام‌جم":9413,"کرده‌":9414,"هاشمي":9415,"جسمانی":9416,"چاره":9417,"حراست":9418,"غه":9419,"تمامي":9420,"بمب":9421,"موقعیتی":9422,"کوارتر":9423,"گابریل":9424,"شوراها":9425,"‌ترتیب":9426,"صوص":9427,"فرامو":9428,"دژاگه":9429,"آگوست":9430,"نیجریه":9431,"ابزاری":9432,"مجسم":9433,"کرمی":9434,"درباره‌":9435,"ثامن":9436,"پزی":9437,"وعده‌های":9438,"آنالیز":9439,"گارد":9440,"درا":9441,"دیدی":9442,"پرشور":9443,"آرد":9444,"مبنا":9445,"کنسر":9446,"توییتر":9447,"نل":9448,"خاتم":9449,"کوروش":9450,"رودی":9451,"نهادهاي":9452,"گذاریم":9453,"قعر":9454,"واك":9455,"گود":9456,"ترمیم":9457,"آرت":9458,"تبار":9459,"سانس":9460,"ساکنان":9461,"خودرویی":9462,"ایق":9463,"اولو":9464,"قاعدتا":9465,"محتوا":9466,"موثری":9467,"سپاس":9468,"جوادی":9469,"مرج":9470,"ساخت‌وساز":9471,"فقیر":9472,"تاکتیک":9473,"افرادي":9474,"‌سن‌":9475,"ورتی":9476,"به‌نوعی":9477,"سیدحسن":9478,"نمایشگاهی":9479,"راستاي":9480,"لژیونر":9481,"‌نیا":9482,"اسکای":9483,"محافل":9484,"تطبیق":9485,"دوبی":9486,"شويم":9487,"سرمایه‌ای":9488,"استثنایی":9489,"سینماها":9490,"مناز":9491,"بالاي":9492,"مقصود":9493,"تير":9494,"مرخص":9495,"سعیدی":9496,"۶۱":9497,"برجست":9498,"می‌گیریم":9499,"تفاضل":9500,"يادآور":9501,"کارا":9502,"ژیمناستیک":9503,"نرخی":9504,"معلمان":9505,"سردر":9506,"تریبون":9507,"محيط":9508,"باطل":9509,"معمار":9510,"محبوبیت":9511,"وضو":9512,"می‌رویم":9513,"پيشرفت":9514,"پنگ":9515,"تجدیدنظر":9516,"اسمی":9517,"احض":9518,"خوردند":9519,"محموله":9520,"شرکت‌هایی":9521,"مجوزهای":9522,"شکستگی":9523,"تفنگ":9524,"آسيايي":9525,"مشق":9526,"تخلیه":9527,"ه‌کردن":9528,"ديروز":9529,"نمایش‌های":9530,"عتم":9531,"شعری":9532,"معناست":9533,"احساسی":9534,"مقام‌معظم‌":9535,"می‌بینم":9536,"مراسمی":9537,"شانه":9538,"روس‌ها":9539,"معتقدیم":9540,"نمایان":9541,"گمانه‌زنی":9542,"اکی":9543,"پستی":9544,"دوضرب":9545,"شفاف‌سازی":9546,"شدگان":9547,"رنو":9548,"تکنیکی":9549,"دومين":9550,"‌آفری":9551,"مشروطه":9552,"سیدجلال":9553,"شده‌ایم":9554,"۵۴":9555,"کرونایی":9556,"بدانید":9557,"به‌همراه":9558,"مي‌كنيم":9559,"‌آفرینی":9560,"انه‌ای":9561,"سوژه":9562,"تحمیلی":9563,"شرعی":9564,"میرزا":9565,"ریباند":9566,"بخصوص":9567,"پلو":9568,"اصولگراي":9569,"مزبور":9570,"آل‌":9571,"رمی":9572,"AR":9573,"می‌دانستند":9574,"تاسف":9575,"ایستگاهی":9576,"منز":9577,"لاتزیو":9578,"رسم":9579,"بایستی":9580,"۶۳":9581,"گنبد":9582,"قدرتی":9583,"قدمت":9584,"صادقانه":9585,"پتون":9586,"عکاسان":9587,"متا":9588,"هلدینگ":9589,"بهرامی":9590,"رشته‌ها":9591,"تدریجی":9592,"ارسالی":9593,"بیکار":9594,"آيين":9595,"رهایی":9596,"روشی":9597,"مظلوم":9598,"موناکو":9599,"شائ":9600,"هالی":9601,"شديد":9602,"سیکل":9603,"اماش":9604,"داورزنی":9605,"تغ":9606,"كدام":9607,"صورت‌های":9608,"جمهوری‌":9609,"نابودی":9610,"آشتی":9611,"عاط":9612,"سررسید":9613,"بودی":9614,"تقويت":9615,"لواندو":9616,"تلخی":9617,"مي‌گويند":9618,"ضل":9619,"زیل":9620,"جلوگيري":9621,"راهنمایی":9622,"مشهود":9623,"لیلا":9624,"تروري":9625,"بالقوه":9626,"اروند":9627,"میو":9628,"همسو":9629,"فیقی":9630,"خواهش":9631,"دبیری":9632,"زنده‌یاد":9633,"ساعتی":9634,"علاوه‌بر":9635,"دایره":9636,"ولاتی":9637,"تعالی":9638,"ه‌کننده":9639,"شاگرد":9640,"وکال":9641,"وادار":9642,"هزارتومان":9643,"بنی‌":9644,"نيستند":9645,"بایل":9646,"سپه":9647,"ممان":9648,"ناشي":9649,"آبیاری":9650,"مقايسه":9651,"تلاشی":9652,"ارزشمندی":9653,"ر‌":9654,"بعث":9655,"سالها":9656,"سپهر":9657,"شاک":9658,"دستش":9659,"۷۲":9660,"بوسنی":9661,"دعوا":9662,"تصميم‌":9663,"ویلیام":9664,"صندوق‌ها":9665,"فشارها":9666,"ژانر":9667,"نوازنده":9668,"فص":9669,"نداريم":9670,"نظامیان":9671,"کساني":9672,"جاده‌ای":9673,"منشأ":9674,"فدراسیون‌های":9675,"اضافی":9676,"سینماگران":9677,"بنگ":9678,"فاش":9679,"پاسخگوی":9680,"موردی":9681,"لواندوفسکی":9682,"نبی":9683,"کارمند":9684,"دستگیری":9685,"آسانی":9686,"احتیاط":9687,"مقام‌معظم‌رهبری":9688,"اكران":9689,"فرهی":9690,"موبایل":9691,"مالکان":9692,"تریک":9693,"گام‌های":9694,"‌بخشی":9695,"تهيه":9696,"سلیق":9697,"اسراییل":9698,"کُ":9699,"راحت‌تر":9700,"شنبه‌":9701,"گریبان":9702,"اطر":9703,"یادمان":9704,"چلوتی":9705,"خواندند":9706,"هفتاد":9707,"آمادگي":9708,"می‌توانستند":9709,"استثنا":9710,"توليدي":9711,"ممت":9712,"به‌واسطه":9713,"ميراث":9714,"نيمه":9715,"تشخيص":9716,"پيام":9717,"حركت":9718,"حمد":9719,"تیپ":9720,"اجبار":9721,"سکی":9722,"هدا":9723,"گاهي":9724,"2009":9725,"کیانوش":9726,"جلساتی":9727,"آنچلوتی":9728,"حیدر":9729,"حامل‌های":9730,"بیو":9731,"اخلال":9732,"يري":9733,"فاینانس":9734,"تمل":9735,"شریعتم":9736,"مستقیما":9737,"ویزا":9738,"استر":9739,"اجرايي":9740,"‌نشینی":9741,"تأمل":9742,"مسئوليت":9743,"اردیبهشت‌ماه":9744,"لل":9745,"زندانی":9746,"كارگردانی":9747,"بحثی":9748,"خوردیم":9749,"دهي":9750,"‌فرد":9751,"مضمون":9752,"می‌سازد":9753,"تصفی":9754,"1397":9755,"دوبار":9756,"آموزش‌و":9757,"پروازی":9758,"تشكيل":9759,"ذهنیت":9760,"سلطه":9761,"ویدئو":9762,"كلي":9763,"ناي":9764,"رسیم":9765,"موردنظر":9766,"واکنشی":9767,"کاشانی":9768,"یکبار":9769,"همبستگی":9770,"منشور":9771,"ابتداي":9772,"پوریا":9773,"کایی":9774,"اوند":9775,"بخاطر":9776,"یونس":9777,"بوديم":9778,"شایست":9779,"دست‌اندرکاران":9780,"کارت‌های":9781,"پذیرایی":9782,"اهمیتی":9783,"جمعیتی":9784,"مساحت":9785,"چیزها":9786,"همكاري":9787,"لوکس":9788,"سوره":9789,"فرايند":9790,"رالله":9791,"آو":9792,"پول‌های":9793,"برگردان":9794,"الوگ":9795,"گذاشته‌اند":9796,"بر‌اساس":9797,"هریک":9798,"مغول":9799,"عزاد":9800,"۷۶":9801,"لطفی":9802,"داشتيم":9803,"رویای":9804,"مسیرهای":9805,"تلفات":9806,"اخوان":9807,"گزارش‌ها":9808,"پسته":9809,"همپتون":9810,"چشمی":9811,"کیان":9812,"احوال":9813,"افراط":9814,"کناره‌گیری":9815,"‌جمهوري":9816,"قضات":9817,"دستیاران":9818,"بعدي":9819,"داود":9820,"دیدارها":9821,"فز":9822,"بیگی":9823,"نایب‌رئیس":9824,"لبخند":9825,"بلاتکلی":9826,"ثباتی":9827,"انجامید":9828,"فلزی":9829,"مركزي":9830,"مشخصات":9831,"خمی":9832,"معتمد":9833,"کاوی":9834,"110":9835,"مصمم":9836,"آریا":9837,"تدو":9838,"غار":9839,"دادرسی":9840,"روزمره":9841,"نمونه‌های":9842,"2022":9843,"تخم‌مرغ":9844,"خطیبی":9845,"‌پذیری":9846,"ماني":9847,"مطلبی":9848,"پهلوانی":9849,"خیم":9850,"وصل":9851,"تعارف":9852,"همه‌جانبه":9853,"سیاه‌":9854,"آموزش‌وپرورش":9855,"شج":9856,"پیش‌روی":9857,"مخفی":9858,"قطع‌نامه":9859,"ممانعت":9860,"نمایشنامه":9861,"ناگ":9862,"لوک":9863,"دند":9864,"آموزان":9865,"تهیه‌کنندگی":9866,"OC":9867,"متعاق":9868,"نزديك":9869,"نمي‌تواند":9870,"استح":9871,"برف":9872,"۱۲۰":9873,"مثابه":9874,"تدوين":9875,"طالب":9876,"بوجود":9877,"بدشانسی":9878,"صحبت‌هایش":9879,"شده‌است":9880,"لن":9881,"٢٠":9882,"نابرابری":9883,"محرمانه":9884,"آورده‌اند":9885,"ارس":9886,"آموزی":9887,"اروگوئه":9888,"محبت":9889,"به‌ويژه":9890,"زندانیان":9891,"كنترل":9892,"بيماري":9893,"کمپین":9894,"بيمه":9895,"پلی‌آف":9896,"محدودیت‌ها":9897,"وشی":9898,"توص":9899,"شریعتمداری":9900,"پوچ":9901,"موقعیت‌های":9902,"مرزها":9903,"امروزی":9904,"ميز":9905,"واع":9906,"عاشقانه":9907,"بوت":9908,"عسل":9909,"بقای":9910,"مردانه":9911,"از‌جمله":9912,"کیلویی":9913,"موجودی":9914,"متوس":9915,"ایندی":9916,"کارخان":9917,"نداشته‌اند":9918,"آحاد":9919,"نموده":9920,"موفقيت":9921,"خیابانی":9922,"موشکی":9923,"ایرباس":9924,"بیت‌ال":9925,"تلفه":9926,"محسنی":9927,"خواستیم":9928,"بوکسور":9929,"هموط":9930,"مشوق":9931,"قربان":9932,"برخوردارند":9933,"وگو":9934,"پدا":9935,"قرآنی":9936,"گواه":9937,"۱۳۹۲":9938,"اعتقادی":9939,"فراهانی":9940,"مغاز":9941,"‌نامه‌":9942,"صمیمی":9943,"مي‌کرد":9944,"الحاق":9945,"صرفه‌جویی":9946,"ماریو":9947,"نخستین‌بار":9948,"مینا":9949,"عواملی":9950,"کوشش":9951,"نويسنده":9952,"ژئو":9953,"کیفری":9954,"درت":9955,"لائ":9956,"جامعی":9957,"مجس":9958,"تفحص":9959,"‌هزارو":9960,"مشترکی":9961,"سلطانی‌فر":9962,"سلب":9963,"واقعاً":9964,"طعم":9965,"تقویم":9966,"تأسف":9967,"كارشناسان":9968,"شرب":9969,"بگير":9970,"کجاست":9971,"صددرصد":9972,"نتوانند":9973,"۳۹":9974,"پروفس":9975,"طرف‌های":9976,"سؤالات":9977,"رازی":9978,"جامعه‌ای":9979,"قوه‌قضاییه":9980,"اضطر":9981,"وکلا":9982,"پلاک":9983,"ناص":9984,"مترمربع":9985,"سیلوا":9986,"آبر":9987,"دیدید":9988,"اصیل":9989,"می‌خواستم":9990,"هیئت‌مدیره":9991,"پوزی":9992,"۵۶":9993,"ایا":9994,"طرز":9995,"زيست":9996,"جنسی":9997,"مجسمه":9998,"نرفته":9999},"merges":["ا ن","ا ی","ا ر","د ر","ا ز","س ت","ب ه","م ی","ن د","ر ا","ا ل","ا م","و ر","و د","ب ر","ب ا","ا د","ک ه","ا ست","ای ن","ر د","ل ی","ه ای","ر ی","ن ی","ر و","ت ی","ا ه","ش د","س ی","ه ا","د ی","ه م","ف ت","می ‌","ه ‌","ب ی","ت و","ا ت","ش ت","ا ب","ک رد","ر ان","و ی","و ن","م ان","ک ن","د و","د ا","ب ود","د ار","ب از","ا س","خ و","گ ر","م ن","آ ن","م و","م ا","‌ های","ا و","ز ی","ی ک","د ه","بر ای","ز ار","ت ا","ل ا","ان ی","س ال","گ ی","ک ار","ه ر","ت ر","ا ف","پ ی","ج ه","‌ ها","د اد","ی م","ن و","ش ود","ا ق","ا ي","ک ش","م ر","گ اه","ف ر","ا خ","خ ود","م ع","ای ران","تی م","ا ع","شد ه","ار ی","گ فت","باز ی","ش ر","ای ی","ن ا","ک ی","ب ار","م ح","ان د","م س","ف ی","و ل","ال ی","س ر","ش ی","گ ذ","گ زار","دا شت","ک ت","ق ر","ع ی","م ای","م د","رو ز","کش ور","ت ص","می ن","خو اه","س ه","ای د","ن ام","م ل","ا ص","ام ا","ب ال","ن گ","ک ند","ت ه","ر س","م ت","ی ا","م ي","ج ام","ش ان","م ه","ش ک","ار د","ن ظ","ط ر","ق ی","د ست","د ان","ب ان","کن ند","س از","ی ر","م ج","ان ه","اد ی","قر ار","ور د","دار د","ان ت","ب اید","چ ه","ن ه","ا ح","ری ن","ز ش","ه ی","ا ج","ه‌ ای","ع ه","م ق","دو ل","تو ان","نی ز","اد ه","به ‌","ور ی","ه ست","ل و","ب خ","فت ه","شت ه","ق ل","ار ه","ه‌ های","ت م","اف ز","خ ی","ب ت","ند ه","ر سی","ش گاه","ل ه","آ م","ع د","س و","م لی","خواه د","اي ن","ح ال","ا ش","خ ص","ص د","می‌ شود","گزار ش","پی ش","کرد ه","و ت","اخ ت","ه ن","ت ح","ش ن","دول ت","م ش","ل ام","ح ض","خ ا","نی م","دی گر","م رد","ب را","ج ود","م دی","با شد","و لی","و ق","ست ان","ر ف","رو ی","ا سی","و ز","ت ع","ب ل","ا می","ع نو","پ ای","عنو ان","حض ور","ک م","ق ه","مي ‌","م اه","ن مای","بار ه","ج و","دی د","نظ ر","می لی","ا گر","بر گزار","ك ه","اق تص","ا ض","ف ع","ک و","د ور","ق اب","ک ر","بخ ش","ی د","خ ت","گ ان","م ص","گ ل","ور زش","ک ا","تو س","ام ه","پ س","آن ها","را ه","ور ت","ک س","بی ن","ئ ی","و جود","نی ن","نام ه","این که","ل م","مان ی","اد امه","ي ن","ار ت","شر کت","ن ج","گ رد","ب د","چ نین","ض و","بازی کن","ش و","ه زار","باز ار","ی ن","ای ش","گذ شته","ت رین","ان جام","ت ن","نی ست","گ و","تو جه","ي د","ن ق","داشت ه","چ ند","ب ز","د ل","ه‌ اند","ش ه","ا ط","ام ل","ه‌ ها","ب عد","لی گ","د ن","هم ه","در صد","ده د","م ورد","ت ق","ص ورت","ع ر","ا ئ","در و","پ رد","تو لی","ای ت","گر فت","هست ند","ن می‌","شک ل","مرد م","ص ن","خ بر","طر ح","ش م","ش هر","ق یم","در باره","ف وت","ن س","پ ر","ک نیم","یک ی","ت ج","ع لی","خ ار","بود ه","ب سی","ل س","ط ی","ال ب","گ وی","شر ای","ق هر","زی ر","‌ ال","اب ق","اع لام","ساز مان","ق ط","آ ی","ض ا","ي م","ک ان","تولی د","افز ایش","ته ران","ب و","ک ل","است ان","ن شان","ر فت","شت ر","ت ما","او ل","ا شت","ای ج","گی ری","بز ر","ر ه","تو اند","گ ری","د ام","ع ل","ه مین","ا ظ","ز مان","ج ی","فوت بال","لی ل","ق ان","های ی","ر خ","مو ضو","س ن","را ت","ص ل","2 0","ح ی","با شگاه","و ا","فی لم","ز مین","اع ت","بان ک","قیم ت","ن ان","ي ر","گ رو","مر بی","م ند","ج ای","ش ور","با ت","س نا","د ود","مر ک","ر قاب","سر مای","کرد ند","دی دار","ج مه","س وی","موضو ع","ن ي","شرای ط","ر ئی","دار ند","می‌ کند","و ارد","و ص","‌ و","هم چنین","ساز ی","پ ا","با ش","ز د","ت ‌های","رو ش","اش اره","ب ور","م ط","ن فت","افز ود","‌ها ي","ف در","پ رو","جه انی","ف صل","چه ار","چ ی","م را","ف را","د ف","و زار",". .","ب ي","وزار ت","گر فته","ق ای","داد ه","جه ان","خ ان","ع ت","آ سی","ت أ","و ه","سی ن","آ ز","ل ف","رسی د","آ مد","میلی ون","پای ان","ا در","ا فت","رئی س","آم ری","خص وص","اقتص ادی","ام روز","ع مل","م ث","است ف","توان ست","غ ی","مس ئ","م هم","بزر گ","ط ور","ف اق","ک می","ب ح","م الی","ح ق","ن ش","اسی ون","جو ان","مق اب","ا تی","استف اده","د لیل","الب ته","کار ی","فدر اسیون","ای سنا","ج ا","بر خی","ز ه","هی چ","ص ح","ك رد","ار ان","اه ش","دار ی","عی ت","مج لس","گ ون","می ز","دو م","مس ابق","ر ای","س ان","م شکل","ات فاق","ق در","من ت","پ اس","اقتص اد","از ه","تو مان","پ و","ه فته","ت لا","پ رس","بی ان","ه ار","یا فت","شد ن","ن تی","شو ند","کن م","لا ح","گذ اری","ز ند","کت اب","لا می","بسی ار","اظ هار","هم ان","و اق","تم ام","ک اهش","ب ن","بود ند","گ ران","خو بی","ا ک","ل ي","ت ش","ه و","س ي","برا بر","مسابق ات","ای ر","انت خا","مقاب ل","توس عه","ج دید","نس بت","ح تی","ت ب","ج مع","م ست","و ض","س خ","پ ولی","س اخت","ص ادر","رقاب ت","ح س","بی شتر","تن ها","ث ر","بازیکن ان","ح وز","د م","ایج اد","ق بل","ا ون","چ ون","پ نج","مح مد","اس لامی","ار و","ن خ","قان ون","مو ف","من ط","بر نامه","ه نگ","گی رد","خو است","ژ ه","ض ای","پرد اخت","گرو ه","ج ل","خو درو","است قل","ا ور","ح اض","ي ت","کن ون","از ی","ط ه","کس ب","دان شگاه","ح الی","» .","گفت ه","ض ی","چ را","ند ارد","میلی ارد","اب ت","ن فر","م پ","دان ش","برا ي","تلا ش","دا خ","خ انه","حاض ر","ش ب","ش ار","استقل ال","آمری کا","غ یر","می ان","خی لی","ند ی","نه اد","صن عت","ش اه","آ غ","ک ال","م خت","ت را","هن ر","آ قای","ح دود","ع ات","می‌ کنند","‌ تر","ض ر","اس اس","ار ز","او لی","مل ه","اط لا","ت اری","خ ری","ر فی","ن ز","زی ادی","بر ی","اف را","برگزار ی","اق دام","و زیر","ایران ی","0 0","آغ از","بر د","دور ه","کی د","ق ب","تص می","بر خ","شن اس","ست ه","مر ح","نی از","و ان","د قی","ت غی","توس ط","این ‌","ر شد","نتی جه","دل ار","گی ر","ن م","س م","ده ند","خ ط","قهر مان","قهر مانی","ام تی","انت ق","خا طر","کرد ن","و نی","آی نده","گذ ار","۲ ۰","ن ال","اي ران","سی است","حوز ه","د ي","نخ ست","مج مو","ش ما","مدی ر","‌های ی","قرار داد","1 3","آ ل","ها ي","ب نا","فع الی","ن وی","طر ف","شک ست","پ ول","ط ب","س ل","شور ای","ط ل","خو ب","بی ‌","ج م","شن به","جام عه","ف روش","ری م","ت ور","رو ند","بی ش","رو زی","م ذ","پ ذ","سرمای ه","اص لاح","مد ت","ع ث","تصمی م","ك ن","هن گی","ری ف","پرس پولی","ف رد","قاب ل","ن رخ","فر هنگی","بور س","بر تر","ح مای","ج ان","مع اون","سی اسی","انتخا بات","خ اب","کن ار","ع مو","سر مربی","مخت لف","آ مو","باش ند","پاس خ","اج تما","بد ون","ف ه","پ ي","ت ف","می‌ توان","ش ا","بر نام","پی دا","دن بال","تر کی","خواه ند","اب ع","ف ار","را ق","شد ند","پرسپولی س","با عث","ج ری","جمه وری","ار زش","ج ر","ند گان","انت خاب","د نی","گون ه","اب قه","پ ور","ن ف","س ط","ل ات","امتی از","مرح له","ح ل","نمای ش","اص لی","ی اد","آز اد","ک لی","م ال","نش ست","س ود","اخ یر","می‌ دهد","بر رسی","ی س","ل ح","‌ال مل","می‌ تواند","دار یم","س ا","سال ه","م طرح","و ب","ال مپ","از م","آ ب","و م","پ ار","تج ر","تع داد","ب ع","آ خ","ش ش","می‌ گوی","هم راه","ع ا","فر هنگ","ار ائ","نو ز","ح رف","س اس","ص ی","اف ق","آ ورد","آ ور","ر ئ","خار جی","ش نو","و اح","ع ود","ی ت","مش خص","انی م","م سی","حمای ت","ت اب","1 0","آسی ا","منط قه","کم ک","زمین ه","موف ق","ه نوز","مان ند","اج را","ت ل","ند ار","ارائ ه","پ ژ","ول ان","کش تی","مرک زی","ه دف","ک سی","می ت","به ترین","ر ژ","نق ش","ی ع","ف کر","\" ،","دی گری","ك ار","ز ي","ف ران","نظ ام",". »","ج مله","آ ث","اخ تی","جوان ان",") ،","صح بت","س پ","حال ا","ت ری","ج ز","ه زی","ر ک","گر م","ر ضا","مدی ری","قل اب","ج شنو","مح ص","ن ت","کنند ه","وض عیت","ست ی","امی دو","رس د","ز اده","اجتما عی","ن بود","ان قلاب","خو ش","مق ام","‌ ترین","در ی","ف قط","س اعت","بین ‌المل","مشکل ات","ه فت","ج دی","پی روزی","» ،","ث بت","م ار","ن گاه","رو ح","وی ت","اولی ن","وق تی","واح د","افرا د","لا ف","خار ج","بر س","تغی یر","ش خص","ر ي","دی ن","کشور های","ام سال","کی لو","ج وی","المپ یک","س مت","من ابع","ب نی","گ شت","محص ول","ن قل","یع نی","ح ا",".. .","ر ود","در یافت","م هر","آث ار","بح ث","تم رین","ي ک","انت ظ","نی د","دقی قه","د هم","ری ق","خبر نگ","ل ازم","مرک ز","ام کان","ث یر","پژ وه","ي ك","عمو می","ز مانی","تا کید","شی ن","ری یس","وی ژه","بسی اری","ن هایی","تجر به","ا پ","تاری خ","گفت ‌و","فع ال","۱ ۳","ات ر","ق و","سو م","دف اع","جشنو اره","ام ور","ا کنون","پ ایی","ر ق","فر ص","من اس","عر ض","ع امل","میز ان","فعالی ت","رس ان","امیدو ار","او ت","عمل کرد","خ اص","ک رو","‌ ‌","اب ط","بی شت","مان د","ا شته","ش رو","ران ی","آم ده","هم کاری","سط ح","چ ار","جل سه","کرد یم","ب ک","با ط","اج رای","م خ","۰ ۰","خری د","ص ر","م م","ن های","مر بو","ان گ","سرمای ه‌","ما ي","گرد ش","بین‌المل لی","چ نان","بود جه","س ری","صادر ات","پذ یر","م در","ج نگ","رد ه","اح تم","ای شان","ت ‌","ج د","ج ذ","ک ری","هست یم","ک ام","اختی ار","گرد ان","منت شر","ح ر","نز دی","و ار","را ب","جری ان","مس کن","زند گی","ا ثر","ت ک","و ي","ای ل","در آمد","اص ل","شرو ع","ن شده","مدیری ت","س ام","ند اشت","ست ر","خواه یم","تح ریم","ف نی","ائ ل","ور ود","مد ال","- -","ارو پا","م تر","را ست","ش نا","مو ق","ح ف","د ک","ش اید","داشت ند","ع م","وز ن","به تر","ام ام","را هی","مس ابقه","ما در","حق وق","مص رف","بنا بر","ه شت","دست گاه","جمه ور","ف ا","ر ت","ج نو","رسی ده","ب انی","‌ ن","ح سین","می دان","مث ل","وق ت","ز شی","ش اخ","غ ر","ي ا","دو ست","دک تر","ط ول","داخ لی","نی مه","س فر","مه دی","دی ل","باش یم","س عی","اض اف","امی د","کال ا","بی ر","تص وی","رو سی","بخ شی","می ل","ق ا","انتظ ار","به‌ عنوان","نهای ت","کرد م","مرا سم","ری ح","کش اور","ارت باط","ق ي","سه ام","انتق ال","رو ابط","ه‌ اي","ع ضو","ن می","م ز","1 5","ص ند","ار ي","مان ده","مم کن","اطلا عات","طب ق","ای ع","‌ آ","ج اری","مط ال","عرض ه","چ ین","س ای","مربو ط","اخ ته","رئ ال","کیلو گرم","و ال","اس ف","تو انیم","گفت‌و گو","بنابر این","ا جه","قدر ت","گ زی","ح ذ","ط ریق","گ ي","عر ب","درو ازه","ه‌ها ي","ن گی","ر ض","آم ار","کرد ه‌اند","آ یا","ز بان","ح دا","س خت","پیش ‌","مسئ ولان","ه د","بال ا","ا بی","آ ر","اضاف ه","ح د","نو شت","م بار","کنند گان","مو اجه","غ ال","ت ان","احتم ال","دار ان","ذ ر","بی نی","بود ن","هو اد","ف ری","اس لام","با يد","م ایی","در ست","لا ق","کی ل","ژ اد","ع راق","ك شور","تو افق","غ ل","نزدی ک","تا مین","نمای شگاه","خصوص ی","ز نی","من ظ","مجمو عه","فرص ت","س هم","را م","ام نی","دا ور","ف ول","مس ائل","ست اد","بل که","مح دود","تب دیل","روسی ه","آمو زش","آخ رین","ی و","ت سه","نو ع","دا ش","با س","لو م","نی رو","م ها","ف ضای","1 9","ز ن","رق م","پ شت","دان ست","شاه د","دم ات","ف رو","د ای","ي س","کمی ته","اس پ","شه ری","ه می","ب ندی","ه‌ای م","ص ه","ح ریف","را ي","کر ه","اي ي","سی د","بر ان","هی ات","دنی ا","سپ اه","حس اب","واق ع","داد ند","عد م","قهرمان ان","نمای نده","س ایر","می‌گوی د","ج ب","ي ه","ات ح","ان س","ض من","خود ش","ده یم","صند وق","ک وت","ون ا","مي‌ شود","دور ان","ا به","نوی س","ت عی","کم تر","ک نید","قی ق","برا ساس","شاخ ص","وی ن","خبرنگ ار","تعی ین","هم ‌","مع تق","ز ان","ز نان","ده ی","وارد ات","دی م","توان ند","دی ده","صن ایع","روح انی","او ه","مع رفی","جای گاه","ج ایی","ع الی","خان و","ي ل","روز های","ست م","ح سن","تح ت","می‌ کنم","ك ند","را ح","کار ان","ج لو","سرمایه‌ گذاری","اب د","بان کی","مو جود","ت خ","اع ضای","دانش جوی","آن ‌ها","مند ان","حف ظ","دول تی","سین ما","مل ت","عل می","خ دمات","می‌ رسد","ق ف","مسی ر","مجمو ع","ط لا","ني ز","رس می","سخ ن","گذ اشت","ال ت","ح ه","پیش نهاد","ری است","ص عود","ر م","ش ای","و ند","محصول ات","هزی نه","انت شار","جذ ب","تسه ی","دار م","هواد اران","1 2","ور و","ه وا","ت ي","هم چنان","چی زی","می‌ شوند","ب گوی","3 0","ک ود","جه ت","ترکی ب","س ف","خ ورد","ال ان","1 4","تا ثیر","ط بی","سال ‌های","آم اده","می نی","ست اره","ز ود","خو ان","تج ارت","شر ق","گ از","شد ه‌اند","س ابق","مح ل","فرا هم","همی شه","ه‌ ی","ج ن","کشاور زی","کار شناس","ي ان","اد ل","‌ جمهور","یا فته","حر کت","مادر ید","راب طه","‌ال له","د بیر","نگ ه","م شتر","ار دی","ص ف","می‌ شد","ب گیرد","ار زی","آن چه","ص رف","د استان","کی فی","تو ل","م دا","ب س","ته ی","ش ع","س لی","ورزش گاه","دي گر","ن باید","۱ ۰","و ع","ت ئ","س را","خ یر","اص له","ان رژ","ظ رفی","ج ع","اد بی","شرکت ‌های","ری زی","تش کیل","و الی","ب ند","عرب ستان","بیشت ری","کرو نا","نمای ندگان","جنو بی","ص دی","فول اد","اخ تص","ان و","شه رد","خ ش","ر ایی","ش وی","اطلا ع","ور زشی","‌ طل","چ شم","ج دول","م ود","شب که","اختص اص","تص ریح","می‌ کنیم","چ ک","عه ده","چی ز","سی ون","تو پ","مدی ران","نت ایج","آ ذر","ن ای","و ظ","م اری","مو ل","گیر ند","ن کت","آ ید","تیم ش","قان ونی","یک ‌","ح مل","دو باره","د ع","خ د","عل اوه","انگ لی","پژوه ش","نظ ارت","م ک","5 0","مو سی","ش اد","س ب","ان ج","بازی ‌های","م ؤ","ش عر","اص ول","تا کنون","با قی","کن ش","است اد","ک امل","ف شار","1 8","خ دا","نخست ین","مخ ال","بر داری","تور م","باز گشت","مسئ له","شرای طی","پرو نده","پ ل","برس د","ام ر","ع ملی","بار سل","رس اند","کت ور","گرفت ن","ب ست","ح ج","ز ده","ص فر","شنا سی","ب ش","موف قی","ي ‌","اصلاح ‌طل","1 6","ه ند","اعت را","رقاب ت‌های","ابت دا","در صدی","فار س","ر فته","ف س","خ رد","گذ شت","امل ات","کوت اه","انرژ ی","می ه","چهار م","بارسل ونا","ع تی","ت خص","تی می","ب ين","ن توانست","غ ذ","ایت الی","تاری خی","اه دا","انتق اد","ند اشته","ب ‌","ن خواهد","دانشجوی ان","ه‌ ام","ترکی ه","مو جب","مت ف","اقدام ات","ص در","پي ش","برخ ورد","ضر به","م غ","امی ر","والی بال","مو س","ندار ند","فی نال","حذ ف","به ر","اعت بار","م ‌","تو ضی","ی ار","ع لوم","برنام ه‌","منظ ور","نکت ه","اج ازه","تی ب","داخ ل","اشت با","جای زه","خ ور","ت يم","در خواست","انج من","من اط","پی ام","اس اسی","پو شان","ر أ","اخت لاف","‌ شده","تیم ‌های","مذ اک","ه‌ ي","سو ال","توضی ح","ه‌های ی","می‌توان ند","ق ض","ی ون","اح مدی","اع تم","ی ابد","13 9","مص اف","اح مد","ك ت","نف تی","‌ن ژاد","ن شد","اض ی","گ ير","گاه ی","مدیر عامل","حدا قل","مناس ب","و سی","ق ق","خ برگزاری","اه میت","وی ی","رو س","دست ور","ار سال","اص فه","تسهی لات","تأ کید","صح نه","م تو","تئ اتر","شی د","مع املات","فران سه","چ هر","ها ش","رو ست","ر شته","بهر ه‌","مج وز","مش ار","ل ز","۱ ۹","امنی ت","‌ جمهوری","ل ای","می‌ گیرد","معتق د","داد ن","ه ي","خبر ی","بر جام","موسی قی","آم اد","پی گیری","ض ع","علی ه","مناط ق","اج رایی","هست م","زی را","گ انی","ف نا","ش امل","مبار زه","‌ سازی","بانک ‌ها","چ ن","تر ک","می را","ش ف","آل مان","پایی ن","را ف","م شک","ره بری","او راق","تر تیب","آ هن","اص لا","ص اح","فی ل","مدا فع","ده ه","مي لي","ف اصله","آن ‌","سال ن","بود یم","آسی ایی","می د","‌ اش","داش تیم","رسی دن","س وری","تح قیق","می‌ رود","بان وان","بود م","رو ن","ژ اپ","برخ ور","م خا","د غ","م اده","ق صد","1 7","20 0","ا بر","اتح ادی","پ ت","بع دی","ظ اه","گ ست","س لام","بل ند","د چار","زی اد","مشتر ک","کیفی ت","هن ری","تق اض","ف وق","سپاه ان","مو ارد","ان ‌","مح سو","ک دام","کس انی","۱ ۵","نو شته","س ایت","ث مر","پی شر","بح ران","اعتم اد","مذ ا","س ه‌","پرو ژه","تر ل","م بل","وا کنش","تمرین ات","پ زش","لح اظ","است ع","اشت غال","خ رو","خواه م","ج اد","پرد از","بی مه","ش هی","مذاک رات","می‌ کرد","من چ","ن ماي","ترا کتور","ن اد","ار دو","شهرد اری","ب تواند","عه د","قط عا","مت ن","مق د","ی ك","ان گی","کمی سیون","ال ه","ش تی","ق بال","گی ن","هزی ن","پ اي","کا در","رفت ار","خ ل","عر صه","گردش گری","حا شی","ری ال","ح ز","کام لا","خ ام","کشور مان","و اره","این‌ که","ن ح","شی ر","تصوی ب","سی م","ظرفی ت","ما ج","آمری ک","1 1","هوا پی","آن جا","باز ر","تغی ی","اصفه ان","كن ند","س پرد","مل ي","آخ ر","مث بت","اعترا ض","م قر","ات اق","می ر","دع وت","رک ورد","گرد د","شی می","ص دا","پیش‌ بینی","اتحادی ه","مها جم","ع ش","ق طر","افت اد","من اف","هم اه","مع دن","اسپ انی","ک ور","لا تی","میرا ث","ع کس","ح سی","ج لس","ف ي","شک ر","با د","ن می‌شود","امیدوار م","وی ل","هد ایت","مشار کت","ب سته","شم ار","2 5","ز ام","م ف","‌ که","-- --","مو اد","مج مع","اف ی","تأ مین","سی ستم","ظ م","م ون","برنام ه‌های","ظ ر","ع و","ب اری","صن عتی","ان سان","س نگ","محسو ب","دی روز","ژ ی","دو مین","شخص ی","ل ند","بر ق","موفقی ت","کن ترل","آن ان","چ ال","قط ع","ادبی ات","تما می","ابت دای","ت س","س رد","آ بی","اح ساس","سین مایی","پزش کی","علی رضا","گ ار","ح مله","پ یک","ه است","به بود","خ ر","ر ع","چن ين","س ران","گ ستر","ف هر","ز و","پای انی","ن مي‌","بزر گی","اد اره","استان دارد","کار های","فع لی","اه ا","ئ ت","شهی د","ما تی","را حی","و ست","ال له","کشور ها","ح جم","گ را","آز ادی","خاطر نشان","ظ ه","حسی نی","۱ ۸","ز ستان","خ طر","‌ گیری","بر ود","دار ای","مق او","س پس","بال ای","د خ","مد عی","رو شن","عی ن","آن که","اس ي","این تر","ند گی","ت ض","راح ت","فنا وری","ر ح","را ل","مي ن","اي ش","ع بد","به ره","پ ه","واق عی","بر زی","طبی عی","آور ده","خانو اده","و س","متف اوت","سا وی","‌ شان","از دهم","رف ع","م ساله","گستر ش","ع ي","بی ت","تول يد","مح مود","ان ي","مست ند","ی ورو","می‌ دهند","۱ ۴","بر تری","ایت د","گذ اشته","هم واره","فهر ست","ایتالی ا","ق الب","پت رو","ت ساوی","عل ت","مدر ضا","ژاپ ن","۳ ۰","خار جه","خو اند","ح کم","سوری ه","کو چک","شا گردان","دان ند","۱۳ ۹","اهدا ف","مالی ات","گ ام","جام ع","نی روی","س اخته","رت به","وی ژ","ار ات","مت اسف","ن ار","4 0","خد مت","ق وه","د فت","با ور","تع طی","ق د","وض ع","قو انی","هست ه‌ای","ان دی","جمع ه","اس ب","فعالی ت‌های","موق عیت","من جر","به شت","مناف ع","مص و","ح اصل","مح مدی","خود شان","بر ند","س ک","۱ ۲","شد ت","ني ست","بر و","شان س","سی نمای","گفت ند","تو ن","پیشر فت","اب ان","شوی م","مش ابه","كرد ه","ت بری","برنامه‌ ریزی","ا ورد","ف ض","پر ست","ن شود","قب ول","ت ال","ون ه","شف اف","مبل غ","رقابت ‌ها","گرد انی","ول و","نق د","واق عا","ع باس","مح رو","در خ","میز بان","س ؤ","دفت ر","سعی د","متاسف انه","مند ی","آ وری","هنر مندان","دان م","هیچ ‌","انگلی س","س د","خرو ج","رأ ی","مح ی","بی ل","ص اد","مسئ ولی","سیاست ‌های","ماه ه","قب لی","آی ت","قوانی ن","نیرو های","مه ند","تج اری","حز ب","مح مدرضا","گل زنی","خو زستان","۱ ۶","خ را","ك ل","س ابقه","بخ ت","ق ضا","گذ اران","برخور دار","مط ل","ج دا","ه‌ اش","م بنی","مس ل","رس انه","سه میه","‌ شدن","تی ر","نو عی","روز نامه","پو ش","اد ث","هر چند","شم اره","مو افق","رو ي","لو ب","ای م","م با","اي سنا","و ف","فرد ا","روز ها","نام زد","آی ند","ن ور","ا وی","آسی ب","در ون","ال مل","مسئ ول","پ در","کش ی","ت د","چال ش","پ ال","آمریک ایی","بیشت رین","می‌ آید","ص ور","اشتبا ه","اولی ه","ش اع","ست انی","مذا کره","شد ید","ی ز","بر داشت","دانش جو","لی ور","غ ان","مص دو","آماد گی","ن کرده","پ خش","به من","ت از","این جا","رئیس ‌جمهور","آ ق","منچ ست","چ وب","ب توانیم","گرفت ند","ساخت مان","خ ته","چ اپ","ب ایر","کارشناس ان","من فی","خ س","مخال ف","ع لاق","9 0","ذ وب","خود م","ل غ","گ ز","ع لا","م دار","م شت","رع ایت","مر ز","ب دهد","لی ت","عد د","و ح","اف ظ","ر مان","مست قیم","ف لس","سخ تی","تل وی","خرد اد","گرو هی","پترو شیمی","احمدی ‌نژاد","پ نال","ک ات","م از","انس انی","و ط","سؤ ال","پ ست","ل سی","ب دهی","عو امل","زی ن","ساخت ار","‌ اند","ط راحی","هم چون","چ گونه","‌ کننده","بی رون","ز اد","اج ی","تق ویت","مص اح","می‌ د","پنال تی","س نج","ز نج","لیور پول","است قبال","فس اد","انی د","وی د","بار سا","اع تق","و قی","سام ان","ق اضی","دست ه","تح ول","مع ام","گذ ارد","۱ ۷","دی ر","و ام","اصلاح‌طل بان","مث لا","ار شاد","داد گاه","این ها","ر نگ","انی ه","تهی ه","مح ور","ط وری","م تی","پر ور","پای ه","مج از","نی و","ث بات","ي ي","مس و","خاص ی","مهم ‌ترین","تح لیل","دست ‌","ات ه","برگزار ي","شر كت","نظ امی","بی ماری","م زد","م توسط","فر ود","آ را","ان ص","غر ب","تلوی زی","حی ه","مش اور","کر مان","ت بر","باز ي","اب زار","تحریم ‌ها","6 0","بایر ن","افز ايش","آیت ‌الله","دقی ق","ص بح","عد الت","حاشی ه","مق ای","2 2","ئ و","هاش می","منط ق","مس اف","اع مال","سر عت","مج د","در ان","پنج م","تأ ثیر","یو ون","ك تاب","خوش حال","با تی","افرا دی","ارو پایی","م ام","می‌ کردند","چ رخ","داشت م","رو نال","سخ نان","وا گذار","را هن","جدی دی","س فی","بر نده","چرا که","تح صی","در حالی","بس کت","کار ت","حق وقی","ترا مپ","‌‌ ‌‌","یوون توس","چند ان","س ات","ارد وی","ث ابت","ص ال","چ اق","۵ ۰","مع ظم","‌ نامه","سام انه","سال ‌ها","ق ت","حس اس","ت ایی","ای ند","ندار یم","افت خار","ج الب","ن بوده","قي مت","ث ری","ک افی","تو زی","ث ی","بر گشت","ام ضا","ب سي","بع ضی","ارزی ابی","پ اری","پا ک","اص ر","اگر چه","مقای سه","کار گردان","ما شین","نی ک","دو ستان","ع لم","گوی ی","نمی‌ توان","است را","تع ریف","گفت م","ك ي","مه می","مث ال","تما شا","اتفاق ات","ذ کر","اه ی","د ش","رس انی","‌ نام","د ایی","اصلاح ات","صاح ب","اسف ند","نا شی","‌ گذاری","بار ها","دار ایی","پار س","بال اتر","د شو","شن اخت","اس م","پرو ژ","گاه ‌های","فار سی","رئ يس","اتفاق ی","چ لسی","ب الی","ن اب","ب توانند","روی کرد","خ ي","جلو گیری","ها ف","ذ ی","سری ع","خی ابان","کالا های","ل ان","م توجه","ز م","ز دن","پ ن","مح سن","8 0","نق طه","‌ زاده","مت أ","یک دیگر","ت لف","کار گردانی","شهری ور","قضا ئی","اح ترا","فیلم ‌های","بگوی م","اعتق اد","گ ا","گیری م","ن کرد","بسکت بال","جمع یت","و اس","ره بر","توجه ی","میز بانی","مربی ان","بي ان","دا وری","ساز ان","ش شم","تق ری","اب لا","را ه‌","شر ح","پ لی","رس ي","توزی ع","آ ست","لغ و","سال انه","مرد اد","مر غ","هاف بک","سای پا","نویس نده","مد ير","سر پرست","اردی بهشت","بازر گانی","ت کر","بی ست","مدی ره","رفت ن","ای ست","هماه نگی","نیست ند","خبرنگ اران","جد ایی","سخ نگ","تب لی","ق ول","آ مر","وظ ی","س که","مرد ان","به‌ طور","سلام ت","ت عهد","ت ازه","‌ ای","سب ب","م ئ","اند ازه","اسپانی ا","ار ف","پذ ی","مر تب","داشت ن","7 0","ود ی","ان تی","صد ور","مو نی","ج اع","گير ي","یا بی","خی ص","مصدو میت","و اب","واحد های","پی وست","قا چاق","۲ ۵","تح قق","مج ازی","مصاح به","اد ار","اف غان","تغیی رات","آ ف","ع زی","مالی اتی","چ قدر","ن شر","فر ه","دش من","تبری ز","زند ان","فعال ان","مط مئ","ساز ي","پرور ش","جه اد","گ ن","ب گیرند","اع زام","ری ان","ای ف","پرو از","غ م","ش راي","ند اد","رو به‌","ل ذ","شراي ط","محی ط","راست ای","2 1","هم ين","منت ظر","مقام ات","ش ي","تو صی","تف اوت","تایی د","سر خ","خود مان","مع ادل","ی اران","می‌گوی ند","ت دار","گ انه","ام ارات","قر ه","رسید گی","افت تا","تص ور","رونال دو","تبلی غ","بر نز","گزی ن","ای ان","علا قه","پرس ش","نگ رانی","خ ات","امکان ات","‌ ملی","ق ز","ت رد","2 4","ر شت","ع جی",". \"","واق عیت","المل لی","سو خت","نمی‌ تواند","آی ین","حرف ه‌ای","تاب ستان","را تی","آ با","ان دو","چار چوب","مس عود","شد م","هزین ه‌های","ز ا","معاون ت","م بت","غ ول","اين ‌","احتمال ا","نهاد های","نح وه","ابر از","حض رت","تقری با","ان ع","ب بی","مو زه","بي شتر","هم چنين","روی داد","ح تما","بخش ‌های","ورزش کاران","برزی ل","داور ان","اقتصاد ي","رو ف","قط عی","ج بران","تح ویل","1 00","مش هد","‌ کردن","می انه","بر گ","مر ت","به داشت","کار گران","سل ط","مس جد","دفاع ی","اول ویت","خانو اد","ن ص","2 3","ت نظ","کشور ی","ال ات","ع قب","تم ند","تد وین","آ رژ","تولی دی","پر ت","ا غل","مع مو","ری ه","ف کری","نگه بان","شع ار","ای ه","ک ز","ح افظ","را ج","ع بور","تع اون","رسان ه‌ها","ت جه","تخص صی","نیاز مند","با خت","در حال","فرد ی","عی ف","مقاب له","م من","کن ونی","سال ی","خ ب","آ بان","س ند","مو ش","تف اه","ی ازدهم","شهر سازی","ک ف","داد یم","تر وری","مؤ س","بر ج","نی ا","نیم کت","عبد ال","متأ سف","مصو به","هی أ","تخ لف","وی چ","نا ک","انو اع","ب دی","مج ید",": «","تکر ار","پی روز","ماج را","هم ایش","مر گ","متو قف","دل ایل","رک ود","شخص یت","نم ایی","قای ق","وظی فه","شناس ایی","ن باشد","زی ست","انتخا بی","بنی اد","تقاض ا","زد هم","کش ید","آرژ انتی","‌ ماه","تصوی ر","معام له","اد ت","ع اده","افت اده","ک مت","ميلي ون","مشک لی","وی روس","مان ع","نگ ران","5 00","گو ش","ک اس","ع صر","جو اد","در ‌","نو جوانان","تر جمه","سن گین","بی مار","ضع ف","ب ایج","ت خت","سو مین","مج بور","ن ه‌","وی ق","اصول گر","ریاست ‌جمهوری","افغان ستان","ت دا","خان گی","آ دم","لا ک","اين که","هی ئت","م اس","آذر بایج","ع بار","متأسف انه","ف جر","حذ فی","بال ایی","ه ری","شو را","ب توان","مرتب ط","رفت ند","بازار های","خ لی","مرا ج","انگی زه","۱ ۱","بش که","اس ناد","ج اي","ب له","گرو ه‌های","آست انه","هنر مند","ز ل","دانشجو يان","سر ماي","تم دید","نه ادی","در مان","احترا م","۲۰ ۰","فر ور","توان ایی","گر ي","برخ ي","صور تی","با بت","ب لو","ت مرکز","شم ند","لا حی","خودرو های","به‌ ویژه","هشت م","مطال بات","مح اس","در س","ن ر","ک شت","ع ال","یار انه","مخا طب","رس يد","عملی ات","ندار م","می‌ خواهد","نس ل","ت کلی","ج به","مقر رات","رو نق","ته دید","دین گی","ل ط","خ الی","ك ر","عم ده","نق دینگی","بن ای","ن فع","دار ي","آ ش","خواست ه","ضر ورت","مش اه","ش نی","من ص","پو شش","ش ری","ابلا غ","فرور دین","آ رس","تو مانی","نف رات","سرا سر","طر فی","در د","ن ژاد","است انی","لی ست","نس اجی","من تق","اد ي","اه ل","فی فا","جلس ات","سخنگ وی","تحقیق ات","س نی","علاق ه‌","سی س","مقاو مت","آمو زشی","ژ یک","داد ه‌اند","هر چه","کان ون","ف از","بر عهده","جمع ی","خرا سان","خا ک","مسئولی ت","مراج عه","تا ج","دغ دغ","ص لاحی","خ لا","ب تی","وا گذاری","با شم","ت مای","کم ‌","تجه یز","پیک ان","مق ط","ج انی","ع مر","ل ال","س ور","ن زد","س قو","ر ز","روبه‌ رو","‌ طور","امیدوار یم","ر قی","سقو ط","مرا کز","ا شک","قر مز","پ ز","ی دی","پ اد","تش خیص","تنظ یم","در خصوص","مش غول","خان م","داش تی","ن شین","دست ی","ت شکر","ام د","نم ونه","نگ ار","ض اع","س بک","سی ر","ـ ـ","اخ ر","طول انی","صف حه","کل ان","چند ین","کری می","خوش بخت","لای حه","مونی خ","چهار شنبه","ف ل","ع ظ","برس اند","سی ل","است رات","را ه‌اند","قر ن","پژوه شی","شهر ستان","شد یم","جز و","حدا ک","پ دیده","موق ع","ذ هن","ب گیریم","مو ک","ع اش","هم راهی","دست مزد","تعداد ی","ویژ گی","کمی ل","ز نده","ران د","کا پی","ق م","مال ي","کود ک","هم زمان","خ برگزاري","کود کان","د يد","ام شب","ف ضا","قل م","توانست ه","پای گاه","اي جاد","آذربایج ان","بی م","جری مه","مع روف","اس ما","قی ه","شرکت ‌ها","می‌ توانیم","سو ي","اسلام ي","جو اب","دل يل","موس سه","تکلی ف","مح و","مناس بی","تع امل","خوشبخت انه","م ور","ب چ","ن قره","نمی‌ کند","ال کت","گست رده","مقد س","صرف ا","ي افت","ق ائ","می‌ توانست","هي چ","چ طور","را د","ملی ‌","ح ادث","ظاه ر","با غ","ب گذار","هم ه‌","نق اط","تر م","مت ح","نظ یر","گون ه‌ای","بن در","ق وی","اخ بار","سپرد ه","دو شنبه","افزود ه","چهر ه","ب نده","ک تی","نم اد","ه‌ بندی","بازی گر","فرود گاه","ح کو","شن اخته","با ب","ب دهند","اع د","آ ي","ام ت","را فی","نس خ","‌و ‌","مج ت","غر بی","ای ده","س کو","حج ت","مخال فت","زود ی","با طی","ن شی","ا تو","سرد ار","سی تی","و لا","یاد آور","ز مینی","‌ هاست","ح قیق","ات ل","پی راهن","ل باس","‌ مان","باز یک","هنگ ام","ت کو","موافق ت","س عود","اد ن","عی د","‌ پور","چ پ","چی ست","بازیک نی","ماز ن","اند از","ع مد","بر ده","مص ط","به‌ صورت","هو ایی","ب ده","پی مان","مشاه ده","ح ص","کمی ت","۴ ۰","فر نگی","ر ب","م گر","مد ل","ض د","موضوع ات","عجی ب","9 2","به تری","وز ير","س ع","مو سوی","رف اه","کم بود","بر دی","مخا ط","دستگاه ‌های","گزی نه","ک لا","بی اید","ك ان","شم ال","رو ایت","نا صر","حال ت","ق دی","می‌ بی","ون ایتد","بال غ","ل ب","ج شن","منچست ری","ك م","بر وز","مح قق","در ستی","کال ای","لح ظه","جبه ه","ت کمیل","فر مانده","ح مید","بن زین","آرس نال","وز نه","تم اس","آ س","پذیر ش","وی م","خان وار","نظر م","افتتا ح","معمو لا","انگلی سی","رژ یم","2 8","اب راه","جهان ي","ف تیم","مت قاضی","انتخا باتی","خو انی","ول ه","محو طه","او ج","و جه","ز ح","تحریم ‌های","---- ----","م وری","باز دید","امنی تی","شو م","وزارت خانه","آز مون","ميلي ارد","ن هم","منچستری ونایتد","مس کو","شهر های","زی رس","اعت باری","ا شی","ين ي","ش جاع","طل ای","غ لام","دست اورد","آق اي","‌ هزار","قیمت ‌ها","ل فی","راست ا","منت قل","ع ادل","ی زد","جد يد","کن ان","فران سوی","است ادی","ض عیف","صلاحی ت","شه روند","فوت بالی","آ تی","و از","میل ان","ب پرداز","طرف داری","آ رام","آ سي","ارتباط ات","لی ون","ر غم","خور ده","آمد ن","مرح وم","تور ن","خل ق","برخ لاف","دی نی","۲ ۲","میل ادی","صاد ق","بد ن","گل ستان","وی ه","مازن دران","اد ع","علی ‌","اسما عی","مد تی","عر بی","مح ترم","دانشگاه ی","ده نده","در ک","‌هاي ي","ایر نا","مت هم","نق دی","سخن رانی","رض ایت","هر گز","جان به","شک ایت","نو سان","مو ثر","‌ بار","ارت ش","سای ه","گ ه","تماشا گران","الکت رو","شو راي","س ون","ف وری","ری ب","ع ب","راه‌اند ازی","مطال عه","گ ش","فع لا","گ مرک","کار شناسی","کاپی تان","مهم ترین","ک ي","م ات","دشو ار","مرا حل","تأ ی","اخ ی",": \"","ت ز","شی وه","ز ایی","یک شنبه","مطال عات","س اي","ات مام","دست و","ح و","مع نای","هفت م","ت ای","2 6","ط ار","ق سمت","م کان","ي ز","افت د","کرد ه‌ایم","طرح ‌های","رض ایی","گذار ي","آ گاه","سي است","اخ راج","پز شک","سي اسي","ای ستاد","یون ایتد","آ تش","گر ه","ك و","اد اری","مجد د","يک ي","خ ال","حادث ه","اک ران","ت ست","ز اب","اح ت","حا کم","ق ادر","دی گران","نج ی","۶ ۰","چی نی","با شید","س اع","تال ار","ار تی","نفر ه","نف و","بز ند","2 7","ح اج","هیأ ت","خواست ار","د ون","تی کو","ری سک","ود ه","رسان ه‌های","ف ق","فره اد","مست قل","خ مینی","د لی","آ ژ","ني از","ع ض","مو ضع","درو از","آ فری","ع ه‌","استع داد","فرا موش","بهره‌ برداری","سن تی","منطق ه‌ای","ک ون","روست ایی","نام ه‌ای","ت ات","تلویزی ون","مل ل","اجرا ئی","تأی ید","های ش","لی ا","ارزش مند","صحبت ‌های","در بار","است ی","دست رسی","ل الی","خا ور","مو تور","تولید کنندگان","ج ه‌","هواپی ما","مي‌ کند","به ار","سو ء","در گیر","را حتی","اخ ذ","خواه ی","خلی ج","می‌ دانند","فران س","بي ‌","امتی ازی","رقی ب","و حد","گي رد","اظهار ات","نظ ری","بسي ار","س بز","کم پ","ج نا","دا عش","ژ ان","اق ع","ادی ن","اخی را","ع ادی","مط بو","مح کو","ست گی","حقیق ت","و اری","دنی ای","ور ي","دانش ‌","مخت لفی","ست ار","ت خری","ح دی","اک بر","خ ون","ز ر","قض ایی","گر ایی","مص وب","موضو عی","را ضی","ب ای","ه تل","ه‌ سازی","خ لاف","ب ماند","خان ه‌های","ظ رف","مید انی","بی ه","اخ لاق","ابراه یم","ك ی","مخاط بان","ات ری","تق دیر","غ ي","آ شنا","سی اه","مذ کور","و ش","بي ش","ه‌ شده","مسو ولان","اسي ون","آرا مش","او اخر","ورزش کار","شم الی","تر جی","ل اری","کار نامه","ار شد","باز نشست","بانک ‌های","قضائی ه","بر گزی","ت نی","س قف","ت ام","اصولگر ایان","اته ام","مت عل","پی ا","سر نوشت","شی وع","مرد می","ت ران","به ادار","دی پل","گی ران","‌ کنندگان","ات خا","تما ش","جنو ب","م است","۱ ۰۰","بران کو","ل هست","د بی","د وی","ف ن","بال اخ","مهند سی","هاي ي","اتخا ذ","مسل مان","می‌ گردد","عد ه‌ای","او ضاع","بر طرف","ت سلی","رو برو","محرو م","ضر ر","پاي ان","ع ام","مع ی","درآمد های","شاع ر","گ ند","مصط فی","تکو اندو","نفو ذ","می‌د اند","مع اصر","بن گاه","کی ه","خواه ان","می‌ گیرند","د قت","مح بو","عش ق","کل اس","ارت قای","استادی وم","حکو مت","چ م","دا و","مت خص","داشت ه‌اند","ل اس","غ ير","تع رف","اد عا","بر ز","اح زاب","رف سنج","متعل ق","ح قی","ش غل","بود ه‌اند","س اد","تحول ات","عم لا","ل این","ژ ر","سران جام","ح ما","دا می","نگاه ی","هر گونه","رو ان","مش ه","پی شین","بازی گران","وظ ایف","مو ند","مي‌ گو","كرد ند","متخص ص","دار و","۲ ۴","ي ع","ست ا","اس را","اح ی","وحد ت","۲ ۱","سعود ی","واس طه","بازی ‌ها","پ ان","می‌ برد","فت د","فدر اسيون","لند ن","صل ح","شک ده","پای تخت","محدود یت","نای ب","تول د","۲ ۳","واب سته","ث رو","آز مای","اغل ب","ضر وری","ق دم","پ ک","زیرس اخت","د انی","خری داری","بالاخ ره","تس نیم","4 5","ك ش","قز اق","روز انه","اتل تیکو","اط مین","کی ‌","مدیر کل","قب لا","بیمار ستان","با دی","سو ت","س می","تقاض ای","مي‌ كند","کن يم","في لم","فرو شی","ژر من","3 5","تصمیم ‌گیری","مشک لاتی","دیدار های","فی زی","ام ي","اش تیم","نداشت ند","کار گزار","حداک ثر","ول ي","ولو ژی","تجهیز ات","صح ن","ا مین","ع ص","رو نمایی","این‌ باره","بزرگ سال","\" .","در گذشت","در وی","‌ رسانی","ابت دایی","لالی گا","دوست انه","بازیکن انی","زود تر","كن يم","پرد اخته","فعال يت","اک ثر","تو ی","می‌ خواست","مص ر","م بنای","قدر تمند","انتقال ات","خط اب","اخ لا","می‌ خواهند","پنج شنبه","است راحت","شر ط","پای دار","هنر های","2 9","منط قی","ص لاح","ه‌ تر","جل ب","روی س","ش وت","درخ شش","اح دا","توانست ند","بر رسي","تخری ب","تعهد ات","ق ات","ار ایه","ع وض","مط ابق","مي‌ دهد","مف هو","مذ ه","صادر اتی","لذ ا","مقط ع","عبار ت","داد م","دستو رال","احدا ث","قض اوت","بر قرار","او تی","تصمیم ات","ده مین","نف س","تن ش","فر ار","آبا دان","سن ت","قر آن","جذ اب","مقد ماتی","ل ر","ل ت","رسی تی","صن فی","درواز ه‌","و و","رو انی","9 6","با ف","مان ه","معتقد ند","تمای ل","نام ه‌","لح ظ","رسان ه‌ای","قابل ‌","ه شد","سری ال","نیم ار","اجتما عي","ال ح","9 4","سرا غ","ا ذ","لا بی","در بی","هم ت","آر مان","جز ئی","پ وی","لی ن","صد ای","توانست یم","هزار و","ف اط","لب نان","کش ف","مع ادن","دا تی","گزار شی","مص لح","ای ز","دا ئ","تدا وم","گرفت ه‌اند","آل مانی","ب لیت","اي د","غذ ایی","استرا لیا","ل ق","ال عاده","نه ام","ئی ل","* *","ت کن","۷ ۰","كن ون","ث انیه","تحصی ل","آرژانتی ن","مع دنی","جای گزین","ز نگ","۸ ۰","زی با","بر دن","مو اردی","وزن ه‌","تات نهام","این‌ گونه","و انی","ط ي","ام ری","جل وی","اع ط","گردش گران","انگی ز","ط راح","ضی ه","نت ي","3 00","13 8","طل ب","ح ات","میان گین","ي ار","حی ح","پ ری","هواپی مایی","ب قیه","تورن منت","کا تی","ت مد","کار ها","مط لوب","سفی د","کن فرانس","حف اظ","رسید ند","مقر ر","مطمئ ن","9 3","گو شت","گفت گو","تص مي","اتح اد","حما يت","ثبت ‌نام","پیش نهادی","او نی","مي‌ تواند","ع ارف","ضر ب","را دی","ابع اد","لز وم","قدی می","باز داشت","فار غ","ج است","تهی ه‌","ك ا","حوز ه‌های","هشد ار","فرا وان","ک ریم","د موک","ماه ی","تعطی ل","از بک","بر آورد","سر ت","ب بر","قزاق ستان","سال گی","در جه","بازر گان","کتاب ‌های","س رویس","ام ضای","فت ح","قرارداد های","دستورال عمل","در گیری","پ را","آ شن","ک د","اد ا","گ ال","ب گذارد","اطمین ان","رئیس ‌جمهوری","مل ک","خا ط","هم سر","آ باد","ح تي","نق اشی","ر ها","عل ي","مش مول","ک ای","پذی ری","ان ق","ز مي","‌ بودن","لهست ان","کرمان شاه","پروژ ه‌های","گ هر","نمای شی","طل ایی","ظ ریف","‌ال اسلام","ن کند","ست می","جوی ی","مطل ب","نو جوان","ون ت","ک جا","تش ویق","تخص ی","احتم الی","مش رو","تو قف","گوی د","نسخ ه","پ سر","فر م","ه‌ دار","س فار","و ئ","قط عه","مه ار","ماج رای","فر زند","گ لی","کر ه‌","نظ رات","اح تی","مد نظر","ي ق","مغ لوب","قیم تی","گذ رد","اح سان","تراکتور سازی","رسان ده","اما تی","ان ض","م ظ","مدیری تی","عملی اتی","جل ال","معتق دم","بزرگ ترین","و را","لاری جانی","او پک","هماه نگ","ف ش","میل اد","تع اونی","خاور میانه","فر ایند","ه‌ ترین","مر ك","د قایق","نی کی","دانشگاه ‌ها","9 5","شای سته","انص اری","دار ید","زی ان","بر وند","مبا ح","پی شک","ایرانی ان","ترجی ح","حرف ه","نا ش","تبلیغ ات","ب خواهد","ژ ن","دخ الت","محرو میت","متح ده","يك ي","ن رم","حجت ‌الاسلام","ك ال","حریف ان","ب ستر","عزی ز","ا کت","پذیر فت","س اده","ج ور","قط عات","ق اس","ت اري","مر ه","ز ائ","نش سته","تخصی ص","ن او","اف کار","رس ول","بر سیم","مرت ضی","ح امد","نا ظر","خودرو سازان","ائ تلا","ت‌های ی","پرت غال","سلی مان","مق دار","بین ند","من ستان","ار ستان","دی وان","روز ه","تج دید","دل اری","مو انع","ط ال","مع تبر","بزرگ ‌ترین","کان دید","ترد ید","کشی ده","مربو طه","نمای ندگی","مي‌ توان","می‌ یابد","ه ادی","ت شکل","صال حی","اي ع","ح ک","مشت ریان","ها ت","چهار مین","محدود ی","و ک","بی انیه","تاز گی","ت با","می‌ کنید","ممن وع","با ق","چرخ ه","به‌ ای","حمل ات","صاد قی","امی ری","ن صر","ح داد","او ایل","ب ول","ذ خیر","مدر سه","مح لی","من ع","9 8","مو ز","پاک ستان","دخ تر","ب دهیم","شی خ","می‌ خواهیم","آم دی","سو اری","بر گرد","کی و","بین‌المل ل","به ای","ص هی","بزرگسال ان","رام ون","پرو ند","برا در","ب برد","آمد ند","۹ ۰","ک نی","همان ‌طور","حقی قی","مقاو متی","سر زمین","کی نگ","اط ع","شاه ین","خان ه‌ها","سپ ری","ي اد","مرا جع","شهروند ان","متن اسب","تعطی لی","دید ن","رم ض","حو ادث","خس ارت","4 00","مع ض","بر ون","‌آ هن","ك اهش","ح امی","نج ات","سه‌ شنبه","ان در","ان دا","اصلاح‌طل ب","بر داشته","مهم ‌تر","منت خب","کی‌ روش","ری نی","آ لو","مربی گری","و زی","ع ز","گردش گري","شیر از","تلویزی ونی","پ شتی","مح تو","گند م","ک است","درحالی ‌که","ن اخ","فرهنگ ي","شهر ها","ات ي","مس ایل","ی ه","‌‌‌‌ ‌‌‌‌","دری ایی","ف تی","جنا ح","کار وان","حضور ش","فر آیند","استان ‌ها","سفار ش","مع ل","تولید ات","با فت","دید م","د خت","ک اد","منچست رسیتی","دروازه‌ بان","مت عدد","کم ال","فوت سال","اخلا قی","اه الی","اص غر","ی ور","حس اسی","طب قه","کال اها","ف قر","مع نی","ایتالی ایی","کیلو متر","قل ب","برس ند","مساف ر","ما سی","مو ج","مدير يت","تر بیت","س رو","رد ی","شفاف یت","مؤ ثر","‌ تری","در ج","پ روی","ناش ران","ب ایی","شاع ران","بين ‌المل","و نیست","نه‌ تنها","عد دی","را سی","آمر يك","مي ان","درخ شان","گفت ‌","چ ي","دست یابی","مج یدی","۵ ۰۰","ه نی","مق صد","توصی ه","مال کی","عمو مي","کادر فنی","9 7","پی ر","می‌ داد","نگ ری","فلس ط","ات رین","کار خانه","اس د","پر تاب","جام ‌","ازبک ستان","اس امی","گرفت م","مدر ن","گر فتیم","ت ار","گذ ر","حفاظ ت","تیم ‌ها","پال ای","20 14","ی من","اق دامی","خاط رات","ه ویت","متو الی","ل وی","منتق دان","دیدار ی","فر مان","موق ت","نو بت","تیم ‌","به داشتی","هم‌ اکنون","ر ن","آ قا","ارت قا","بی فتد","ن اف","دور ت","‌ بر","دغدغ ه","چ و","‌ حاضر","پی وند","مان دن","اي ت","ن صی","تق سیم","صهی ونیست","سال م","س اح","کتاب خانه","نوی سی","لیون ل","سهام داران","فرا بورس","سف ارت","آقای ان","صن ايع","مبا دل","نوی ی","ديگر ي","اطلاع اتی","موس سات","س بد","سامان دهی","چ ش","زه را","اندا خت","نوی ن","مس ؤ","می‌ روند","ري يس","ام ن","ا ك","را ک","خوشحال م","ماه ‌های","شر قی","به انه","ام وال","رض وی","ه لند","وق وع","ج ست","علاقه‌ مندان","بی اور","می‌گوی م","بنی ان","ه ل","ايران ي","سرمایه‌ گذاران","مع نا","مؤس سه","اجرا ي","ت دبیر","برزی لی","کار کنان","اف ل","دو و","‌ ساز","تل خ","ظاه را","آ گاهی","کار لو","فر از","خات می","مع لوم","باز سازی","ع رف","8 8","می‌ زند","مر ور","ص و","مق دم","ق اسم","فوق ‌ال","موری نیو","خارج ي","می‌ كند","مي زان","فر ش","دید گاه","آژ انس","رقاب تی","ب ط","ابه ام","ادع ای","اض ع","وح ید","ند اده","اب ي","ق را","ور دی","اطلا عی","گ مان","وری ت","صدا وسی","می‌ خواهم","ص حیح","گل ‌","ظرفی ت‌های","رو حیه","م لاق","ای ام","ز لز","بر نج","انتظ امی","جع فری","به‌ دلیل","اس کو","ع ان","کار ي","‌ م","انتشار ات","می‌ پرداز","ائتلا ف","س ار","اطلاع ‌رسانی","م ب","جن به","ح می","م أ","گ اری","اعتبار ات","بو شهر","مفهو م","بو کس","7 5","کشتی ‌","ذ خ","مو ظ","مال ک","پرو انه","تفاه م","بست گی","نیست م","۲۰ ۱۸","قرارداد ی","20 16","اظهار نظر","‌ ام","مها ج","۲ ۶","کمت رین","ف و","3 1","ت ك","زمي نه","نیاز های","ت دری","مناس بت","خو اب","ج نج","مح ق","محاس به","ع می","ز انه","تبر یک","مس لح","آ سان","پ نه","روست ا","بال اترین","موظ ف","تو جی","اسپانی ایی","ق اره","پرد ه","ن ادی","ي ح","باشگاه ‌های","وع ده","ز مين","باشگاه ی","تع وی","ر نج","مباح ث","ظ می","پي دا","اين كه","رئی سی","پی رامون","ور ک","هند بال","ز رد","پی نگ","مک انی","ت نگ","کو چ","سن گی","ویژ ه‌ای","ببی نیم","رد اد","تع لق","ف هم","دورت موند","ق ص","زی دان","همان ند","خدا حافظ","م لاح","پنج ‌","ن از","مخالف ان","نص ب","‌ شناسی","ز ای","بان ك","آ کاد","عض ویت","تع لی","ی حی","تح مل","گست رد","وضع يت","تجر بی","متقاضی ان","مک عب","نویس ندگان","۲ ۸","بی کاری","این گونه","ام داد","فلسط ین","ن وری","چند انی","ز ير","سلی مانی","امیدو اری","اصر ار","تاثیر گذار","نظ ارتی","ت در","ك شت","پ تان","زد ند","ذوب ‌آهن","فر ست","ال د","اندی شه","س کوت","بد نی","چ گون","کا غذ","ش ك","چند ی","محکو م","فرا تر","ب چه","بو س","ن گرفته","تل قی","کن فدراسیون","پن اه","يع ني","یحی ی","لو ازم","چهر ه‌های","برج سته","راه بردی","مي ت","سو پر","جز ء","در يافت","حی دری","جر يان","حا کی","تسهی ل","مصلح ت","ل هی","می‌ دانم","‌ بندی","تلف ن","ملی‌ پوشان","مسکو نی","در یا","ف یک","ك يد","مي‌ کنند","م رات","خ اد","تماش اگر","ک لم","اص لي","دولت ‌ها","گال ری","اسرا ئیل","اج اره","بی ا","آي نده","خصوص ا","آور ند","رفت م","پلی س","ک امی","واری ز","صداوسی ما","گذاشت ند","دار يم","مط هری","اد ام","فاط مه","جر م","تکن ولوژی","کری ستی","ز ين","باز ان","وار داتی","بگوی یم","ر از","ئی س","خ شک","پ لم","مر زی","آف رین","خط وط","هم کاران","نشی نی","ز ور","د ال","پی ن","دو ازدهم","ت کل","اه واز","تا سیس","‌اند از","خ وی","کان ال","نور وز","نیم ه‌","می ادین","فرا وانی","ع س","مع ماری","صدر نشین","نم ود","تش ریح","وقت ي","ذخیر ه","از ‌","زنج یر","ع قل","ان فرا","می‌ دهیم","۲ ۷","آورد ن","آفری نی","هم دان","ال برز","انق لابی","تح ر","ي کا","جشنو ار","را س","دانش‌ آمو","ز وی","کن گره","غ الی","در ضا","شه ادت","پذ ير","۹ ۷","ری ز","انی ان","هو شمند","ت غي","شد ه‌","کشور هایی","دی ه","پالای شگاه","داد ستان","دیپل ماسی","منص وری","غ نی","اب وال","مها جر","مبت نی","مت عددی","ق ضیه","خو بي","تغي ير","آکاد می","س پی","ب شر","ط اه","ئ ون","زن ند","مرا دی","ای فا","آل ود","د اند","آسی ب‌","اتفاق ا","‌های ش","دار نده","آمر يکا","نتوانست ه","ز امی","تو انید","با سی","شی و","کار اته","فر ض","اند ن","ت ها","بين‌المل لي","ه جو","زي ادي","جزئی ات","جو انی","شبکه ‌های","سرماي ه‌","ط نز","فلس فه","هر حال","ج زیر","ري ف","تف کر","اه د","ک اش","مد ي","منظ ر","ت شک","مجت بی","ق لی","خي لي","کلا سی","اف زار","مطبو عات","من بع","کار فر","رئيس ‌جمهور","ت ایل","جنگ ل","مهند س","تص اوی","شجاع ی","عمد تا","مق اله","ش بیه","باز رسی","پی چ","نم ون","نو يس","سلط انی","اق ی","ن ایی","نتي جه","زح مت","می همان","په لو","خو دروی","ش ام","تف ک","ي ف","فرص تی","ملاق ات","تروری ستی","‌آ وری","کار ش","نمی‌ دانم","فیل می","ك س","‌ ون","ساز و","نش ریه","تیر ماه","خواه ید","مذه بی","نم از","ک ‌های","بو م","محق قان","ری و","گون ا","ب خواهیم","قر بانی","مو اضع","بز ن","باق ری","ب عید","‌ ی","با بک","پيش ‌","ئ ت‌","می‌ دانست","خداحافظ ی","با ستان","ن کنند","20 20","ساز د","شی رین","برای م","ل ه‌","درو اقع","مت ری","قی د","بین م","نگه داری","نمی‌ کنند","ث ير","جود و","تنی س","سو ئ","جان ب","غ ام","گیر م","ارز ان","ص ره","مجد دا","پ دید","اض ل","قل عه","دوو میدانی","م تولی","ورود ی","ک لو","‌ به","تح ری","مهر ماه","ئ ه","ش مرد","ع مان","اخ ير","بل ژیک","خ انی","ج نگی","اب راهی","شنی ده","کلی دی","م زی","اج لاس","6 5","قیمت ‌های","دی دا","3 3","آ هنگ","ح وا","بسي اري","مه ارت","ق الی","نمای ند","زنج انی","را ين","کار گاه","می‌ آورد","نار احت","اص ناف","چ ين","سرماي ه","داخ لي","دخت ران","ظ هر","ت قابل","گر چه","فض ایی","س جاد","منچ ستر","تیم ‌ملی","پی و","20 18","تصمی می","مرات ب","مدار س","روی ه","اساس ا","‌ فر","دور ه‌های","استان ‌های","مع رض","روح اني","ال ف","کر این","پنج مین","تدار کاتی","پشتی بانی","ن ع","دبیر کل","ش ریف","8 5","م نی","آن لاین","خطر ناک","بی اورد","شای عات","20 15","بر ویم","ح رک","به‌ شدت","از جمله","تو ق","کو ویچ","ذخ ایر","آشن ایی","ال ص","ذ هنی","راه کار","مساف ران","اسپ ورت","عمو م","ار ق","ب لاف","بر ه","8 4","مر جع","شی دی","عم رانی","ع ط","کار گر","9 1","برای ش","هم‌ زمان","قد س","كش اور","جان شین","کسی ون","عی تی","ان ا","ه‌ شدن","دي دار","۹ ۶","غ ن","قاب لیت","اط راف","بلاف اصله","ث ال","ع اتی","ت روی","اي شان","قهرمان ي","فیزی کی","حال ي","ارت باطی","انفرا دی","3 2","ن گر","فی ف","اساس نامه","درو غ","سی ا","عبد الله","حوا شی","نمی‌ توانند","پاد اش","عل نی","بور گ","ح صر","مع رف","اع م","کی ن","به‌ دنبال","یاران ه‌ها","خط ا","همین ‌","ب دست","نخ ب","مار ک","ه‌ اید","مي‌گو يد","دو ش","رییس ‌جمهور","کرد ستان","او کراین","بر دار","مش ك","گرا می","خوان ده","تعرف ه","ای راد","ن کات","می‌ کردم","اين‌ كه","ار ب","تبا دل","ج اده","ع وار","ر بی","ذی ب","باز گرد","ده ید","۶ ۵","می‌ افتد","حا کمیت","گ نج","رفسنج انی",") .","فیلم ‌ها","پو ند","نی ازی","سوی ه","شک لی","جل د","فر ستاد","آمريك ا","نمی‌ توانیم","نماي ندگان","ط ان","به شتی","دقی قا","ك نم","4 4","مالکی ت","ال گو","زی بایی","اند ازی","ری لی","تع ادل","ک مي","تایل ند","چگون گی","نس ب","اصول گرا","کریستی انو","ام ني","۹ ۸","دور بین","ک او","كرد ن","غیر قانونی","نامزد های","من زل","تخلف ات","گفت مان","اش خاص","مبار ز","بن اب","ال زام","تا کتی","خاطر ه","ج ه‌ای","ب دین","ند اشتیم","ي ب","ن ورو","قی ر","تض مین","استرات ژی","رسی دیم","جو ایز","تأ مين","5 5","شا ء","آف ریق","ال هی","رد ه‌بندی","ای الات","رخ انه","ب ير","آ رای","ي ‌ها","انگ ار","ق صه","دشمن ان","گذاشت ن","گ ازی","مر بي","بد ل","ها ب","سر ای","تو کیو","دولت ‌های","مهم ان","ایران ‌","جزیر ه","ن خواهند","‌ سال","عر ص","اس طور","یك ی","ش ادی","ض اي","نا حیه","نو از","می‌بی نیم","حی ات","پیوست ن","م فی","متف اوتی","رس ما","تر س","فاق د","ب لی","فی ق","انض باطی","پاری س","اع ضا","ران وند","او ب","ع تا","خصوص ي","مه لت","مه رداد","ال گوی","من تهی","مت حد","‌ مدت","سازمان ‌های","پتان سیل","‌ میلیون","خدا وند","خ طی","لی لی","کار آمد","می‌ گذارد","تخص ص","کا پ","اه لی","از ن","‌ دادن","توان مند","رمض ان","مث بتی","عاش ق","کرد ید","ش طر","مع نوی","استاد ان","وي ژه","دان شکده","رشت ه‌های","کس ي","لو گرم","بچ ه‌ها","مت مرکز","جن اب","پیا پی","جذ ابی","از دو","س ول","صهیونیست ی","همکاری ‌های","اق د","نتی جه‌","ري ح","مجاز ات","می انی","عظ یم","کارلو س","ی ل","نخب گان","ک ران","ت ند","غل ط","ص بر","آش کار","تن هایی","س لاح","ظه ور","خواند ن","تی راند","ک اخ","فرا کسیون","آسي ا","ق وت","بناب راين","شطر نج","است ناد","مع اف","محمد علی","ن برد","نماي شگاه","تعوی ض","ه‌اي م","رئی سه","فر ق","راه برد","عوار ض","سیاست ‌گذاری","ج اري","تصوی ری","بران گی","لو ا","تر ز","سفی ر","د استانی","نداشت ن","قاس می","وا کس","در مانی","ش غ","برگزی ده","مد نی","ال ي","ای تی","مل ت‌های","هاش می‌","ي ند","پ ش","تع ویق","مست مر","ازدو اج","‌ دهنده","3 6","ني رو","۲ ۹","می‌ کردیم","مي‌ كنند","از ای","پس ند","آ يا","مص دوم","است ث","با قر","پژوه شگاه","هو ش","ت وری","مع وق","تر از","ع ار","تولید کننده","این‌ كه","نورو زی","مبادل ات","ارو میه","بلند مدت","نام ه‌های","ج غ","کان دیدا","ت ث","تحر يم","بی رانوند","هست ید","پای داری","اق لی","ح بی","را قی","دید گی","پ رسید","ان حص","تز ریق","ک مان","ثرو ت","ب دانند","‌ گو","استع فا","صاح بان","دستاورد های","برنام ه‌ها","ب ستان","آورد ند","نوشت ن","ب گو","ت شدید","ران ت","من ش","مشت ری","سو ار","رای زنی","فر زندان","بی ند","ند ان","ي ات","ماتی ک","اسماعی لی","دست رس","حمای تی","لذ ت","راه‌ آهن","برنام ه‌ای","کرد ه‌ام","ک ما","ي ‌هاي","دی وار","تح میل","آر زو","3 4","ما چ","جع فر","بن گاه‌های","فیل مس","اق شار","قط ار","مبت لا","استان دار","ویژگی ‌های","ناخ الص","گفت نی","من امه","پذیر فته","ق ائل","اند ون","انتظار ات","دولت ي","تی ن","اسماعی ل","کس ری","خام ن","نظ م","‌ دار","و اش","ص لی","نماي نده","ماند گار","‌ میلیارد","گ او","طر يق","7 00","صد ق","گ رام","همان طور","درحال ‌حاضر","چی ده","خر ج","پنه ان","ری شه","آمار های","ار اده","پار ل","ن کردند","نا می","طی ف","نع مت","طار می","کلی ه","ایم نی","آرژانتی نی","تب صره","م ری","مج ری","لط ف","ر ؤ","گوی ا","چنان چه","محاس بات","ط با","توصی ف","بزن ند","ببر یم","9 9","ارق ام","ممن و","بح رین","نو سازی","غذ ا","ع ج","انی ا","ب لا","بگوی د","محبو ب","ف ای","منص وب","قالی باف","ا ثبات","مي‌ شوند","شهر خودرو","اتفاق اتی","۴ ۵","لي گ","ب برند","اص ط","استاندارد های","انتقاد ات","ماز اد","رو ندی","عز ت","اسپ ان","خلا صه","‌ ایسنا","زند گي","اد بي","فی لی","امیر حسین","پرداخت ند","م تولد","اب ند","ه کت","اقد اماتی","دست یار","آلو مینی","بازنشست گی","نزدی کی","ف ور","فرو خته","ان بو","نهای تا","گفت ن","پار ک","عمی ق","ای وان","بو می","گو اردی","بزر گان","ژان ویه","پرت غالی","ن رسیده","تک ذیب","اختلاف ات","قر اری","روش ‌های","تلاش ‌های","ماچ ونی","را جع","مدافع ان","هواد ار","نگ تن","دشو اری","توان مندی","وسی له","خبر گان","کشاور زان","س ين","استرا ماچونی","رو غن","كار ي","ب وی","ن بودند","به‌ خصوص","نخست ‌و","کان ادا","8 00","مس اوی","زائ ران","آر زوی","شی نی","ار ک","خاد م","تا خیر","باز اری","مش اغل","غلام رضا","رن کینگ","رو حی","گواردی ولا","تص ريح","می‌ خورد","نمی‌ دهد","لیگ ا","سوی ی","واکس ن","مال زی","وزنه‌ برداری","ال اهلی","ا گو","ض مان","تا ي","تروی ج","آ میز","زمان ي","می‌د انیم","مؤس سات","نا گه","ری ش","حمل ‌ون","کار گری","عم ران","طبی عتا","بر ترین","ان گلستان","نهاد ها","در ود","دو ستی","بخش ي","طرف داران","تعطی لات","ب يم","کی می","ماي ي","آمریکایی ‌ها","تاري خ","ج نس","آبا دی","قای قی","مس ائ","قض ائ","این ستا","اق لام","تق دیم","5 7","پار المپیک","بار ان","بنا در","‌تر ين","بور سی","فرو شگاه","نمی‌ کنم","بتوان م","هست يم","ولی ت","ا کس","‌ حال","و کیل","بر سان","6 00","واش نگتن","هی جان","۹ ۵","3 7","الکترو نیک","ن اه","ام لاک","دستگاه ‌ها","ا ث","تج مع","آلومینی وم","راه‌ حل","۳ ۵","احی ای","دبی رخانه","امروز ه","نا پولی","آس مان","می‌ گفت","دی شب","اف تی","-------- --------","حمل‌ون قل","مدار ک","ت نوع","ض اح","مجت مع","ای مان","اشتبا هات","کا بی","ر حی","کار کرد","نس بی","كن نده","سع دی","اق ت","ر قب","می م","مفی د","مع یار","بان ه","اد ب","زم ستان","ح امل","ابزار های","جا به‌","مطمئ نا","تعلی ق","ع ذر","بی ایند","‌ نظر","یزد انی","20 19","کن سرت","اول ين","تأ سیس","دام ن","غی بت","حساسی ت","ف لز","ان ح","اصط لاح","کی ا","نیست یم","توجی ه","ک اسی","کا ظمی","گونا گون","گذار ند","ن ها","‌ آور","ف اج","کلو پ","ب ق","قرارداد ش","؟ !","نش انی","خواه يم","و اج","نی ما","خودرو ها","هی ن","اینتر نتی","در خت","منت ظ","هدف مندی","به‌ خاطر","ای لی","خوش ‌","سی ما","شش مین","نی وی","ب شود","تمد ن","نشان ه","ن شدن","ع لام","د قایقی","ت کیه","واح دی","ساز نده","تما شای","اد غام","ضو ابط","و جو","زمین ه‌های","تک ‌","4 8","بی انی","تفاه م‌","م ض","ا با","اندی شی","مصو بات","آیین ‌نامه","‭ .","خر يد","كن ار","سود ه","شهرد ار","محدود ه","عل مي","گفت‌و گوی","خی ال","نح وی","گل زن","اک ثری","ط وف","مست قر","ع کاس","می‌ آیند","نبود ن","صندوق ‌های","سي ون","ش ايد","بی ستم","تح قي","جن بش","م ریم","بگذار ند","ام تي","بد هم","جلس ه‌ای","آن قدر","کار گروه","اختصاص ی","فوق‌ال عاده","طب ایی","آن‌ قدر","ت سویه","غ افل","آ پ","ار اضی","مط الب","هر مز","بخ تی","به‌ جای","سنگی نی","سط وح","رق می","۱۳ ۸","خو انید","زنگ نه","فی ن","جمهور ي","قر ض","محی طی","هکت ار","صال ح","ش به","ن اس","ببی نید","پژوهش گران","هم سایه","ناو گان","صح ت","گی لان","ا كنون","پروی ز","آزمای ش","اس کن","ك سب","آ فت","خامن ه‌ای","می‌ گذرد","می ث","3 8","تصاوی ر","مدر س","بر ‌","اخت يار","طبا طبایی","مار س","ال و","سپرد ه‌","ط بي","ع قی","اند ک","چ ه‌","انت های","هفت ه‌های","ر خت","گ راي","نو زدهم","نا پذیر","بع ضا","م مل","اع زامی","جغ رافی","نوسان ات","ق اعد","ک ویت","دارایی ‌های","لی ه","اعط ای","نق شی","الکترو نیکی","قیمت ‌گذاری","گر ایش","شکل ‌گیری","اتو بوس","ب ایست","بر قراری","س اری","داد گست","ک مر","تث بیت","آث اری","می‌ شویم","خس رو","وی ر","مص رفی","7 6","بهره‌ وری","طرفی ن","ه ج","ات ور","اکثری ت","ع راقی","معرف ي","یاد داشت","زلز له","کابی نه","تصمي م","کو س","این‌ طور","ا غ","ای ای","در خش","آم اری","اق تدار","شناس ان","شا غل","بگذار یم","فرد وسی","تو هین","نتوانست ند","کسب ‌و","علاقه‌ مند","مشه ور","کوتاه ی","ق اطع","دو پینگ","هدف مند","هم گی","بد نه","به‌ کار","خری داران","می‌ رفت","گذ ران","۳ ۰۰","سوی ا","بو ند","می‌ دهم","ابراهی می","ام يد","مواجه ه","امي دو","ط ق","خوی ش","تدری ج","شغ لی","توس ع","گ م","تا بی","ر ست","رو ال","ع نا","یاد آوری","آ ذ","مي ل","دانشجوی ی","بازی گری","روز نامه‌","نوی د","مح ض","دری ای","7 4","ي ين","a n","جهان گیری","پو شی","مج له","رقابت های","حداد ی","نق شه","نماي ش","انص راف","مع مول","بد انیم","زي نه","فض اي","تو نی","صند لی","نداشت م","امتي از","کمت ری","باشگاه ‌ها","تو انی","ش مس","ق بیل","۹ ۴","مشك لات","شوی د","نق ض","سر طان","نیم ‌","امتیاز ات","این‌ حال","اوب اما","این طور","دل ال","من اظ","نیرو گاه","بوند س","تبری زی","اساس ي","ر صد","گش ایی","مسائ لی","پنج ره","تع يين","اس کار","‌ در","یافت ن","استرات ژیک","پرد یس","لا ي","ماه انه","ثی ری","نیوی ورک","ان ش","خش ونت","هاشمی‌ رفسنجانی","ضر بات","می‌ ماند","پذی رد","حر م","‌ پذیر","گو اهی","بر پا","ار اک","بر می‌گردد","6 6","اندون زی","علی زاده","پی چیده","متر مکعب","تروری سم","بد يل","قضایی ه","كرد ه‌اند","منتق د","علی پور","و ای","پرو تکل","خودرو سازی","بر وم","شع به","بر شمرد","ارز شی","به‌ هرحال","باش يم","نف ری","دلی لی","ارد ن","و سي","پر چم","ی از","بزرگ داشت","پيش نهاد","تخ فیف","پ له","روز ي","تع جب","ح یا","20 13","بپرداز د","فوتبالی ست","ق اع","زی ستی","د قي","بسی ج","۳ ۱","چ ای","مو تس","اج ار","توان م","پرد اختی","مهاجر ت","خصوصی ‌سازی","می‌ زنند","۹ ۲","است قرار","بعد ها","ناک امی","، ‭","اله لال","لحظ ات","مق الات","سی مان","سو تان","کی ار","تغیی راتی","ي مي","؟ »","و عد","خرو جی","ث ان","پیشک سوت","می‌ ‌","سرمايه‌ گذاري","مر بع","بیم اران","ماه ا","دان شمند","دانشگاه ‌های","باز نگری","مس ير","مه ران","سی ف","ک ول","دان سته","س من","او ست","هو ای","به رام","تج لیل","ال سد","ملی‌ پوش","سه می","خات مه","ال م","تسلی ت","ساخت اری","دری افتی","مي‌ رسد","آمری كا","مس كن","و سط","ح اجی","ع مق","20 17","ک شد","رو نی","باز هم","مي‌ شد","139 3","گرد ی","حک ایت","بند ي","صادر کنندگان","قاع ده","با تجربه","ت بديل","ساح لی","فض ل","كن ندگان","فر مود","ل قب","139 2","8 9","۹ ۹","آ خو","ت ندی","ک يد","ج س","نا درست","حدود ی","او ز","م صدق","پو ست","ري است","تم رینی","حس ين","مک زی","رحی می","لر ستان","ویل موتس","سال ‌هاي","فرا خوان","من صور","چالش ‌های","چ ابه","مر تض","رف تیم","ج ال","‌ عالی","گ فتی","چابه ار","مت رو","بپرداز ند","تحقیق اتی","رو سي","پیش‌ رو","وجو ه","واب ستگی","بازرگان ي","شر ف","قدر دانی","بلو چ","ک اب","پر ستی","تغیی ری","بر ت","ف سخ","بگوی ند","اقتصاد دان","بين ي","‌ است","اینتر نت","تخ تی","اند کی","اه و","خ دام","ص ری","ه ان","مت شکل","ق وا","ع اق","مت عهد","ز لی","می‌ رسید","ب خواهند","ساي ر","امام ‌","15 0","اش غال","ع اد","طرح ی","سی ‌","رییس ‌جمهوری","نام ه‌ها","ری الی","جه ش","گر ج","۴ ۰۰","جد ال","عص بانی","صنعت ي","سرخ پوشان","ا ژ","طرف دار","سخن ران","نگار ش","شاخص ‌های","وئ ن","نا در","متر جم","مل وان","آذر ماه","ع باسی","ف اع","حرف ‌های","فرص ت‌های","نا شر","مح کم","ما ع","ردی ف","ه‌ است","پیو سته","اندی ش","برابر ی","گ ور","به‌ گونه‌ای","گردش گر","خورد ن","ك مي","حل قه","1 20","ار جاع","ت بی","هفت ه‌","که ن","مح افظ","معام لاتی","استقل الی","افز اید","توس عه‌","گران ی","پژوهش گر","نادی ده","مش كل","نسب تا","شخصی ت‌های","تر ين","سو ز","ش فر","ارز ي","ج ار","پزشک ان","مه دوی","e r","‌ درصد","د فع","ب ون","این جاست","8 6","اردو های","قانون ي","کال ایی","بر گردد","ول تی","پیش ‌تر","می‌ برند","مدعی ان","سپ تام","ك ود","سپتام بر","چه ل","تجربی ات","مسجد سلیمان","مع ن","تص اب","ح رفی","ان بار","ج می","پیچ ید","در سی","مشخص ی","پژ و","ادام ه‌","منصوری ان","می‌ گفتند","خان ه‌ای","غی رد","ن گرفت","وزی ران","ب غ","رخت کن","زو ج","کار هایی","زنجیر ه","خ زانه","آلود گی","ظاه ری","قز وین","کی ش","از ي","به ان","کل مه","مد ام","ه ام","خ لف","مرک زي","ن بايد","می وه","دن يا","تب عات","‌ گری","کیار ستمی","شه دا","نخست‌و زیر","اه اي","چشم ‌انداز","مطل ع","کشور ش","ي لات","را ه‌های","مرد ی","اق امت","ا ثری","ق تل","مع تر","آ د","مس لم","ک لام","رح متی","اع ضاي","از سوی","رسي ده","کال درون","ترد د","ع ناصر","تیراند ازی","ك نیم","ال دین","مه یا","هی ئت‌","رح مانی","می‌توان م","پال ایش","گش ایش","اسطور ه","سوئ د","ا ‌","ق ن","تص وي","زنج ان","حمی درضا","کشور هاي","فر سوده","سال های","پیش گیری","کرو اسی","اسفند ماه","گرد ن","مرز های","غ رف","خیلی ‌ها","سیر جان","است خدام","يا فته","هواپی مای","خوان نده","ص می","ج ايي","اق ص","ساز ند","ار ض","ج دي","او قات","بر می‌","کلاسی ک","لو کا","ای ب","میلیون ‌","A T","ن رسید","ن کنیم","در آمدی","سران ه","تبی ین","ار منستان","یک م","جمع ‌آوری","نظ رس","ن خواهیم","ار گان","نو بخت","ج راحی","اختیار ات","ش ير","رساند ن","جو ام","نمی‌ شد","پیشر فته","مطل ق","ج زی","دا غ","رقب ای","حض وری","ورزش ي","ست ین","ز ع","ژ وئن","تأ ثير","به ا","پش تو","ئی ن","جل الی","ه زين","گرو ه‌ها","بد ترین","شه دای","۲۰ ۲۰","ل ه‌ای","۷ ۵","من حصر","پر رنگ","مسو ول","ف ورد","ل وله","يت ‌هاي","است خرا","فر آورد","ش كل","كم ك","مسلمان ان","کلی ن","می‌ دادند","رس ند","نویس ند","ك اری","عال ي","ام بر","مناس بات","خ لیل","اف شین","۲۰ ۱۷","تف سیر","4 2","چ ر","کارگزار ان","د ز","طرح ‌ها","ممنو عیت","رو م","پشتو انه","از ان","20 12","مخ تص","خود داری","وز ه","نای ب‌","ری خت","یون ان","پی اده","ف ني","توانست م","با ي","ئ م","معض ل","ص راحت","ف اضل","راه کارهای","شت اب","ک اف","اف قی","معی شت","تش کی","عام لی","دی دیم","مع لم","قر عه","مدت ‌ها","نح و","ارک ستر","یک سان","کار تا","پیک ر","چ اه","رهبر ي","زیرساخت ‌های","خواست ند","شک اف","قل بی","وی لی","به‌ خوبی","ف كر","استخرا ج","د کت","صر بستان","است یک","قدر ی","ک اه","گزارش ‌های","وص ول","می‌ شدند","ایف ای","تبلیغ اتی","آفریق ا","تع دیل","خ تم","هیچ‌ گاه","المپ یکی","کن اری","نگ اری","خودرو ساز","شاء الله","رادی و","امني ت","اشک ال","کلی د","هزین ه‌ها","اق بال","سیاست ‌","زح مات","م کر","اعتراض ات","تصوي ب","سال ‌","پی اد","متخصص ان","ع ده","دی پلم","گ با","هم گانی","نان و","داو طل","در ي","افز ون","ن کون","مي‌ گيرد","ند ید","عذر خواهی","معتر ض","ع زم","اعت دال","می‌ گرفت","نی فت","آر ش","ن عم","ث ار","ستار گان","نکون ام","دی جی","جا کارتا","خ زر","در از","ه ف","آل بوم","مسل مین","اث رات","بلوچ ستان","شان سی","سلام تی","اون س","ک شته","شک سته","روسي ه","دموک راسی","گر می","گ س","مبار ک","رقابت ‌هاي","روی ترز","رأ ي","شن اختی","نه ض","ور ان","می‌پرداز د","این چ","اح کام","آزاد سازی","سان تی","محمد جواد","سی نا","اله ام","ور ده","ق انی","کو ه","حمای ت‌های","پ پ","ب گیرم","ه زينه","می تی","پرسپولی سی","ب بینند","اميدو ار","مش ورت","‌ افزار","نا کام","ع ادت","همان ‌","ه ندی","تور می","پایین ‌تر","‌ مانده","مرا ق","بررسی ‌های","هم گان","كشت ي","بر داري","پ رف","ام كان","بح رانی","هي ات","اح یا","دائ می","مق صر","توق ع","ج اس","گو در","هفت مین","جوام ع","ل بنی","ژاپ نی","پار سال","مي دان","سخن انی","قائ م","تن درو","رب ط","نعم تی","خ سته","كشاور زي","پی گیر","گ راف","گوی م","مغ ان","ان ف","خوش حالی","ب کش","ش ایع","7 7","یافت ند","قرن طی","بست ری","ع ن","تو کلی","ساخت مانی","خو راک","حی ث","هي ئت","م ادی","در این‌باره","کو پا","رح مان","طبی عت","۹ ۳","محمد حسین","د ژ","5 8","قی اس","فاج عه","قرنطی نه","پر هی","ی اری","آ ری","مق وله","خری دار","پار چه","ملاح ظ","ون ز","اسپان سر","شهر ي","دادگست ری","خط ای","ري زي","ه‌ گیری","ترک منستان","چی چ","تی تر","رای گان","مص الح","همی ش","مرك ز","به نام","رو یم","مای ش","ی ابند","خود ی","ز اه","مول د","ژ و","نی می","در نظر","برسان ند","بن ز","شه رام","آ گو","اد ف","پیام د","ش نید","حس ابر","6 8","د وری","نمای د","رح یم","فق دان","استی ضاح","من س","بری ت","دور ه‌ای","را کی","بخش ‌هایی","بر دارد","پوش اک","لی تر","ح ماس","ائ و","ماه یت","ع قد","تی ک","چرا غ","بان که","۲۰ ۱۶","همین ‌طور","غل به","یون سکو","جنج الی","ز مست","غ لامی","برگزی د","او زان","كال ا","قی ن","روحانی ت","‌ به‌","بد تر","سه راب","مراق بت","خ راب","رفتار های","اس ط","سر شناس","بی ری","i n","شی ان","و ‌","نرخ ‌های","نا دری","مسؤ ولان","ار کان","فیل منامه","اذ عان","امی دی","ق شر","اتری ش","ضمان ت",") :","ی ان","ال کس","به‌ وجود","نو آوری","جدید ترین","تفک یک","ص رافی","افتتا حیه","a l","یو سف","ت شی","اسب ق","گير ند","گرج ستان","مر مت","ک رسی","ح ائ","مت نوع","تاب لو","مای ل","زي را","ع روس","تاز ه‌ای","عال م","نج فی","قر ضی","هشت مین","ئ ي","ات می","آل ات","رس مي","o r","ه ت","همیش گی","یک‌ بار","استع فای","جام‌ جهانی","نظرس نجی","هنگ امی","ن تواند","ن شوند","روی ار","شیمی ایی","مط لو","تع بیر","ق امت","می‌ كنند","محدودی ت‌های","غیر مجاز","ایرانی ‌ها","این‌ بار","ر سال","خلا قی","هزار ان","کل اه","خ م","ژ یکی","سرمای ه‌های","چی ان","زار ع","و گر","ست ون","گو ار","شهریور ماه","اج ماع","هوا پي","ک را","تحصی لی","جاي گاه","او اسط","بز نیم","به‌ زودی","علی رغم","خان ه‌","نمی‌توان م","تح رک","4 6","فرهنگ ستان","ن کرده‌اند","را موس","د شت","د انیم","سپی درود","مای ه","مکزی ک","سو ئیس","نده د","شم اری","نهض ت","تج سمی","پو گبا","o n","سفر های","تو ض","۱۳۹ ۵","ت مجید","برای شان","تح ت‌","پ اش","احمد ي","عقی ده","مش هر","وا ژ","ست ي","غ ری","با وجود","سر خی","آن هایی","کتاب ‌","ت ذکر","پیام بر","وی سی","غیرد ولتی","باز ماند","ه‌هاي ي","پژوهش ‌های","زو ئ","زمست انی","س اط","رو سای","درصد د","مصرف ‌کنندگان","5 6","شرکت های","کت ب","هجو می","F C","آن هاست","w w","139 4","مع طوف","غیر قابل","سم تی","ون زوئ","مج ارستان","چ س","پیشک سوتان","خ لاق","بخ ورد","ی نه","۸ ۵","لی ک","شو ک","شوی ی","کف ش","دربار ه‌ی","ف لان","می‌ ها","کتاب ‌ها","مطبو عاتی","ده يم","آخو ندی","با خ","دانست ند","زع فران","آن جایی","آ واز","بازی های","ها می","ه ال","نی ام","مدر ک","باز گشایی","توی ی","8 7","کارگزار ی","تب عی","گرفت ار","سي ستم","خود تان","افرا طی","د ه‌ها","ور زی","ل ک","مر تک","تض مینی","م جامع","۴ ۴","خی ل","نگر ش","تأ كيد","بع دا","دو حه","نا امید","۳ ۳","برانگی ز","من و","بل غ","واس ط","نو امبر","نا ظ","سل مان","نشان ‌دهنده","وط ن","آتش ‌","شای عه","اق ساط","افزود ند","چ من","ذی ل","خرداد ماه","وس ایل","ص با","هر کدام","ست ‌ها","م تص","پروژ ه‌ها","ن هايي","شم شیر","مرتض وی","س يد","يت ي","ویت نام","هم دلی","باز ه","چي زي","وز رای","ترا بی","پو ستر","منع قد","انی می","پی امی","سی سات","عنا وین","با په","م داخ","ف ان","المپ يك","فیلم برداری","مهر ه","ش اف","بر پایی","صاح ب‌","ری فی","خ ن","کنند گی","رویار ویی","اعترا ف","دف اتر","ک انی","وو شو","ض بط","ي شه","جامع ه‌","‌آ بادی","آمریک ای","فیلم ‌هایی","‌ال دین","‌ شد","آ يد","زند ه‌","صعود ی","کوتاه ‌مدت","ت غذ","با توجه","اص ولا","مجموع ه‌ای","۵ ۵","ب شار","بانک داری","بیند از","پ رسی","ترکی بی","زی و","رقابت ها","ت الی","مت خلف","شک نی","دام نه","پور تو","هم ای","اخ باری","پژوه شکده","بر ن","اف شار","اول وی","این‌ رو","گذ اشتیم","بش ری","مرداد ماه","تع زی","د بير","آ لی","اع دام","6 7","سل ول","بچ ه‌های","م باد","نا چار","حز بی","تض عیف","عجی بی","بهتر ين","ع ق","محتو ای","ن مي‌شود","سی ستان","جذابی ت","شهر ک","قو ه‌","اي ر","شناس ند","فرآورد ه‌های","ض ریب","م اد","در ه","‌آ میز","کاندید ای","اولین ‌بار","حالی ‌که","انحص ار","ایست اده","دو چرخه","تفاهم‌ نامه","یز دی","نخست ين","ح ریم","حالی که","پارل مان","ادبي ات","تاب ستانی","ن ود","شع ب","سو ابق","اش عار","کر نر","ارزش ‌های","رساند ند","اح راز","صورت ‌","مغ ز","درخش انی","مع صو","نق ط","روز گار","گل ‌های","مف اه","چ ان","نق ص","وا ژه","ح بس","مو شک","باز دهی","گیری د","م خاب","مق دمات","دید ند","و ات","ونزوئ لا","مي‌ توانند","بخ شد","یاد گار","ك ام","تأثیر گذار","بي ت","ف قیه","بدهی ‌های","ك وت","آمو ز","هیات ‌","به روز","نی اور","۱۳۹ ۶","آخر ين","3 9","ج اب","مطال به","د ك","اصلی ‌ترین","من اق","i r","ي سي","۱۴ ۰۰","سال گرد","4 7","ربی عی","درصد ي","بن ایی","انس جام","تهران ی","سط حی","فرا گیر","پی د","تأ کيد","مدي ران","اس کی","ي ابد","هست ه","۵ ۷","وا گن","ک تابی","ري ال","گل ر","زده مین","تو فیق","گ مر","کره‌ جنوبی","قرارداد ها","جست ‌و","تر ور","ن کردن","تاج یک","سازو کار","پ ائ","‌آ ف","4 1","حامی ان","ب مان","جایگاه ی","فر شاد","ر مز","به‌ نظر","گر ند","e s","م ك","‌ فارس","گفت ه‌اند","تدر یس","اینستا گرام","بهره‌ مند","دی ‌","داد ه‌ایم","ن ك","20 11","برد ند","هیچ‌ کس","نی ت","مرتک ب","انیمی شن","سنج ش","ام تح","د لا","پرهی ز","کار بردی","ه‌ زنی","بن ‌","سریع ‌تر","بخش ‌ها","مس اعد","۳ ۶","۳ ۷","ایل نا","واحد ها","پ است","سام بر","ساع ات","اس ر","دل ایلی","د سامبر","رد ان","كشور هاي","قب ولی","دي ده","ن مره","را می","فروش ندگان","در این","تق و","تک نیک","خوان ند","گزی نی","پاد شاه","هيچ ‌","تو قی","مقط عی","تو ماس","دست‌ کم","لي ل","ساخت ن","آمار ها","مح رم","شان زدهم","رخ داد","‌آ باد","دانش‌آمو زان","ف اصل","پی شی","سو الی","ممل کت","کن گ","اک بری","5 9","مسی ری","مصرف ‌کننده","آن‌ طور","سن ‌","افتخار ات","a r","ثال ث","حس ب","باقی مانده","ي ده","کسب‌و کار","ب امداد","مص دا","انت ها","حل ال","ن کنید","تسه يلات","مت حمل","۳ ۲","ارت فاع","س روش","شنا ور","ابا ته","سازمان ‌ها","اکت بر","4 3","سر ود","دی اباته","ه‌ شان","میلی ونی","ب ني","بر قی","داری وش","مت قابل","س کان","آ يت","ری ی","است ارت","اب تلا","میث م","کشاور ز","۴ ۸","تحصی لات","پشت ‌","دو لی","بن وی","امی نی","روست اها","ت ابع","به‌ منظور","مای ان","حبی ب","بار ش","جای ز","و اض","سیاست ‌ها","ال تی","هم تی","در بر","ه دیه","حی ل","به‌ دست","جز ایر","م سال","آ نی","ه‌ ‌اند","در ام","جهان بخش","نصی ب","ي يد","ن تاي","مهاج مان","م اب","ی می","شری عتی","ح راج","او ه‌","سی و","نتاي ج","به‌ روز","انسان ‌ها","ه‌ ساز","سرمربی گری","عرص ه‌های","تو افقی","صرف ه","عو ام","سو ارز","م کل","‌ گیر","بر این","گری زمان","دول تم","دی و","کار مندان","ب گيرد","قرا ئت","شی ری","5 2","مو اقع","ف لاح","تران زی","سال ‌هاست","بخش نامه","ببی ند","عل يه","سرا سری","ج مل","باز پرداخت","۳ ۸","‌ زد","کار آمدی","ار ج","خواست م","تحقي قات","ر نگی","میلی اردی","فس کی","هم کاري","ف روند","تاکتی کی","تشکل ‌های","گل ایه","e n","داشت ه‌ایم","کو چه","مع دود","برنام ه‌هاي","ح اد","آمد م","نتوانست یم","ع اب","حداک ثری","بال است","رو انه","مت غیر","ش لو","آز ادر","بیانی ه‌ای","ک سر","A FC","ار یک","ات صال","سی زدهم","جزی ی","نگ ي","سنج ی","ت مه","من فع","نتی جه‌ای","ئ ل","اصلاح‌طل بی","غ ایب","20 10","آق ایی","در خور","بار ز","مرت به","بازنشست گان","گو شه","ضای تی","مذا کره‌","ار ا","مست قی","نج ف","تهیه‌ کننده","مکل ف","سوء استفاده","گ فتیم","اما کن","انرژ ي","گفت‌و گویی","ا کو","ک اوه","هج دهم","7 2","شو خی","دو از","مس أ","کار بران","رویداد های","هرمز گان","کود کی","ری اض","ساز مانی","وارد کنندگان","آزمای شگاه","ف ون","همه‌ چیز","پژوهش ي","پرواز های","5 4","ژ نو","برس انیم","14 00","ني روي","پ ورت","نها يت","کار ایی","باز تاب","کار برد","پای ش","وال ن","عادل انه","اتهام ات","۱۳۹ ۷","مو لف","نام ن","طاه ری","انبو ه","تن اب","مزی ت","او لا","موق عی","عرف ان","اینچ ئون","باز گردد","گو شی","تها جمی","سن اری","نمی‌ رسد","غیر رسمی","کامی ون","به‌ طوری","خانواد گی","امکان ‌پذیر","است دلال","نز ولی","حف اری","ز لات","شورای ‌عالی","سک وی","گودر زی","شرايط ي","پي گيري","7 8","نی افت","تا كيد","مأ مور","حرک ات","بيشتر ي","كي لوگرم","بیاور ند","ره بران","ابوال فضل","نامن اسب","خ شم","سرمایه‌ گذار","قان ع","ذ ب","ما ئ","مسابق ه‌های","غیر نفتی","ای ثار","ج نتی","ش کی","با این‌حال","فی روز","باز نشسته","مع ین","آ ت","6 3","ج ات","مبل غی","ه از","خانواد ه‌ها","دیپل ماتیک","مسئولی ن","جنج ال","باز ده","دقی قی","نویس ندگی","وال ي","کن يد","وگر نه","گ له","را مین","س انی","هل ندی","قانون ‌","فشار های","F AT","سو اد","‌ شناس","مو از","ساز ندگان","6 1","با ‌","سو زی","FAT F","حرف ‌ها","یور ویی","م بالغ","دون الد","سر مربي","فری اد","فلز ات","ك متر","من صف","پار سی","آيت ‌الله","می‌د انید","‌‌‌‌‌‌‌‌ ‌‌‌‌‌‌‌‌","وی نی","ف يت","ابلا غی","کمک ‌های","س لس","ظ م‌","دست ي","می زی","مز ایای","می‌ کشد","طرف ه","فروش ند","نار ضایتی","می‌ ز","ان با","پي روزي","سرخی و","به ینه","توضیح ات","ن رو","خ ير","آماد ه‌سازی","نا طق","ص فی","ژ وزه","ملت ‌ها","الد حیل","انجام ‌شده","معاف یت","ن شدند","الی ز","دو چرخ","مح وریت","شك ست","گمر کی","مستند ات","اثر گذار","ع بدی","مشاور ان","نام ش","است مر","وض عیتی","ان داخ","پرداخت ن","مح وری","برا دران","مه دي","روابط ‌","ج یم","بر لین","قل عه‌","بدی هی","والن سیا","هاز ارد","بندر عباس","ف این","معاون ان","تي ب","تر جم","چ لو","جم شید","وي ژ","ي ش","اه دای","مق ص","ناب را","س ئ","گ شود","تس اب","ق دیم","می‌ باشد","رد ه‌های","فیلم ‌","زی ارت","ع ازم","۳ ۴","هم سای","سو ق","ترا فیک","آن‌ هم","آذ ری","سر باز","كرد م","بنی ادی","استمر ار","مور خ","ت مر","ک یم","است رس","فر مول","توقی ف","با ستانی","مم كن","فره ادی","طبي عي","حقوق ‌","فول ادی","وق فه","ز اوی","ش با","غ فوری","گزین ه‌های","ش فی","نمی‌ آید","لی نگ","شه روندی","خد ماتی","رفسنج ان","گوی ند","لو ح","سو س","موک ول","بده ید","مباد له","م گاو","سپرد ه‌های","بی ژن","نمی‌ دهند","بلغ ارستان","مه رام","ف ونی","آسیب ‌های","نمی‌ کنیم","وف ق","گسترد ه‌ای","می‌ توانید","خانواد ه‌های","بختی اری","در آمده","عل اوه‌","امتح ان","م لاک","ملاح ظه","5 3","تلف نی","دار ا","ف صلی","تر خیص","جو از","معمو لی","اس پور","دك تر","نی وز","آفت اب","آن تو","اندر کاران","خ اری","پروند ه‌های","طب عا","جال بی","داو ود","طال بان","به ‌های","احمدي ‌نژاد","‌ داران","مت همان","تب ع","ح اب","رو بر","ات وری","روز به","ن باشند","را بی","دیجی تال","ری زش","در عین","پوی ا","بانکه ا","‌و جه","وز را","ده ک","ی خ","اض ي","نداد ند","کلم بیا","ول ایت","ارد بیل","تشک يل","حائ ز","عمل كرد","۲۰ ۱۹","پایی ز","حساب ‌های","اح تساب","پاي ين","دولتم ردان","دار اي","سمن ان","مي‌ دهند","آب ‌های","بازار ها","نش ری","ال ‌","توض يح","ش اری","کر ج","نشست ی","کمپ انی","حیا تی","مي‌ رود","اس دی","ع کاسی","دست گیر","بد اند","معض لات","صن ف","حرک تی","ری کا","گی اه","تحری ک","کشتی‌ گیران","ن صف","ان تصاب","اور تون","ست ‌های","واض ح","وح شت","بر آورده","بل كه","» ؛","6 4","کما کان","مؤ لف","عزی زی","تر سیم","روش نی","ق وان","بز نم","جنو بي","ظرف يت","پيش‌ بيني","آزادر اه","اع ظم","پاسخ ‌","در‌ حال","یور گن","جی ب","ف اتح","ش أ","زیر زمینی","س انه","با قي","شور وی","شخص ا","جریان ‌های","139 5","نار احتی","ق ش","والي بال","ف ند","بیاور یم","اولوی ت‌های","ا چ","لو ت","پژ مان","۲۰ ۱۴","بغ داد","فدراسیون ‌ها","ایر ج","نمي‌ توان","اطلاعی ه","فر شید","نش اط","جا ذ","پی ‌","13 0","ار ن","ت قی","تاري خي","عقل انی","رس میت","ام ير","شهر ت","فاضل اب","مق داری","شش ‌","جن ایت","سازمان ‌","شخصی تی","ژ ي","عبار تی","آژ اکس","می‌بی نید","گر ای","اه ميت","می‌بی ند","برنامه‌ ريزي","مل کی","دانشمند ان","دی لی","م خصوصا","گر ت","نظ ریه","آوری ل","مص ارف","صح بتی","فروش نده","او ش","بر داران","نفت ي","کشتی‌ گیر","تبعی ض","t i","ر ج","مذاک راتی","7 3","ه‌ سازان","ابت کار","بر کنار","اق ض","ایست گاه","نیمه‌ نهایی","بیان گر","قائ م‌","های شان","کار آفرینی","خال ص","سی ام","سو سی","پ ايي","ماب قی","ش هاب","‌ گرایی","گ شته","مسو ولیت","پدر م","4 9","اشک ان","مداخ له","مخاب رات","گ نجی","تر ك","درد سر","جای گزینی","رمان ه","اج تناب","درو نی","‌ کار","ر هن","شد یدی","من ام","ج را","۶ ۰۰","تحلیل گران","اقلی م","پرد ازی","مي زبان","تج اوز","الزام ات","ون ي","یک باره","شهری ار","مف اد","6 2","فا کتور","منظ م","ذی ‌","شنی دن","5 1","نيرو هاي","م ضاع","در مورد","ن کردیم","ان کار","بک شد","حج اب","سار ا","ف دا","نمایشگاه ‌های","قط بی","ان‌ شاءالله","تندی س","لو ئیس","فران ک","پان زدهم","اتو م","شاه نامه","کون ته","هفت ‌","کار شان","دار ویی","ارب عین","‌ از","کوچ کی","سل ان","عظ یمی","تغذ یه","مول انا","حاض ران","اسکو چیچ","نق اش","خی ز","حس نه","دی گو","ک فا","به م","قضائ يه","تام ين","فش رده","اس ح","14 0","فیل د","اصولگر ایی","ماشین ‌سازی","ارت رین","شای ستگی","اص ولی","ثی رات","پهلو ان","حسابر سی","هو شی","ش کن","جدا گانه","ای ات","هیچ‌ گونه","ك اران","نو ش","ساد گی","تع قی","سید محمد","نیام ده","جغرافی ایی","کشید ن","بر عکس","کر م","۸ ۸","پیا ‌م","گی ل","م ظاهری","سر پرستی","آ فر","ان گل","اد وار","ات کا","کو ک","ب اند","ب مانند","خ رم","فرست اده","دوچرخ ه‌","نی امد","سخت ‌تر","کیه ان","ارت مان","اع ی","ارو س","شناس د","ح اش","رفت اری","فارغ ‌ال","زد م","هند و","خلیج ‌فارس","ح اک","غی ب","سان تر","وسی ع","هواپیما های","می‌گوی یم","تسلی م","شی اط","ل ژ","مصدا ق","و ود","تو ط","صادر کننده","مک تو","ان ده","ص مت","آسی ای","اخت لال","هیأ ت‌","اص حاب","گفت ار","ن کردم","يد ي","نظ ران","مح ي","پا شی","چیز هایی","شیاط ین","مطلو بی","بازیکنان م","غ زل","شی لی","مشرو ط","را ستی","ت طبی","خ ري","مل زم","مدير عامل","جلو ه","نو رال","پاس داران","ق اد","تج اري","بانک ‌","می‌ بر","کو ب","شو اهد","فعاليت ‌هاي","ال نصر","اش تی","قط ری","پي شر","ن فی","هست ی","نمی‌ کرد","تاز ه‌ترین","مشاور ه","ح ین","اتحاد يه","ام باپه","این ‌ها","محمود ی","سلی می","ا بری","ز دی","انجمن ‌های","ثرو تمند","دو جانبه","دان ه","مفاه یم","تای په","بریت انیا","همای ون","در نهایت","کو تی","بهره‌ گیری","بنز ما","ر ضو","کو مان","توسع ه‌ای","موضوع اتی","قدر ت‌های","قط ب","۶ ۷","مکر ر","2 50","ش ل","باز يك","ار مغان","تص دی","با با","استان بول","شأ ن","شک وه","از اده","س ج","کو وید","ان گشت","سا کن","ف ال","فه می","ای لام","هیچ‌ کدام","سوال ات","دغدغ ه‌های","متص ل","صد ها","شیر ازی","برون ‌","انح راف","کار آفرین","6 9","ت بل","مدا وم","شر کتی","جدی ت","ه در","چشم گیر","بزرگ ‌تر","م بانی","طی نی","مک ات","فری دون","و کی","نامزد ها","چ يز","ایی ‌ها","تمر ين","با ع","داستان ‌","علام ه","کار بری","باقی ‌مانده","ب بند","محیط ‌","ا پور","پار ا","ارتقا ء","ص ریح","تا كنون","دی ‌ماه","اس لح","چشم گیری","پرا فت",".. ..","هر ‌","می‌ آمد","فلس طینی","مغ ایر","ض ه","مست ق","ت سریع","قوان ين","7 9","به‌ جز","ها شم","اي ل","چه ارد","پای بند","گن اه","اردو ها","مع ظم‌","بر کناری","است ن","دی نگ","ن جو","‌ سازي","تم ندی","اب ن","پی ست","شک و","شاگردان ش","سخنان ش","شی عه","هیچ‌ وقت","۶ ۸","مو ازی","رسال ت","‌ رسان","خواست ه‌های","ک مدی","توضیح اتی","م ونا","فضا های","مج ال","به‌ تازگی","قلعه‌ نویی","مق ال","ب دان","نرم ‌افزار","لژ یون","ح ي","جمع ‌بندی","حات می","لی ف","تماش ایی","م جه","ش بی","پدر ش","جو اه","تف اوتی","انی ‌ها","عان ات","داستان ‌های","مو سوم","مأ موری","جیم ز","مح مو","عزی زان","مام وریت","اخت تا","ول ت","کم کی","بل ژیکی","139 0","کو لا","نیم‌ فصل","اين ها","د گر","اس اتی","خ ند","نمی‌ گیرد","وئ ل","تع املات","م لا","فعالیت ‌ها","اقی انو","رب طی","ب ساز","۷ ۰۰","ه وی","۷ ۴","می‌ افزاید","نماد های","پر ش","تج ار","كار شناس","نویس د","می‌پرداز ند","س عد","رأ س","سياست ‌هاي","بازيك نان","ق اي","۸ ۰۰","جابه‌ جایی","آدم ‌ها","اع لامی","ق ند","لز و","بان ي","سع اد","چش مه","آور یم","‌ کنند","ام ثال","ك سي","م امور","احتی اج","شی ت","ج لیلی","تح سین","رسيد گي","بنگاه ‌ها","8 2","ض ي","۲۰ ۱۵","مهم‌تر ين","مي ني","من وط","هر کس","رق با","کاه شی","هم دیگر","کارفر مایان","معل ولان","اش ار","ای شی","به زاد","فر زاد","عمد ه‌ای","تص و","آی ی","‌ بخش","کا ظم","عل وی","دو می","زلات ان","می‌ رساند","دری ان","شاخ ه","اج باری","لی د","کشت ار","یو وه","ظ لم","محور های","من شا","بال اد","غ فل","ژی من","علی‌ اکبر","7 1","ک الی","تدار ک","شی عی","ریی سه","تی ‌","تمای لی","۶ ۶","این ک","ا گه","ش گفتی","تج ارب","بحث ‌های","دائ م","مخ در","آ زار","تر تيب","خلاقی ت","بر ي","تو زي","کشت ي","وین گر","انص اف","ص ب","نمی‌ شوند","جوی ان","اب و","اجرا ئي","ناگه ان","ش اي","پیش برد","دی وید","فنا وري","چ سب","باز نده","مع ت","خبر های","علی‌ رغم","د عا","تا ثیری","ری ل","کمي سيون","اسح اق","ب ویژه","ق ار","ق ریب","گ اد","م ى","اب انی","شای ان","تاجیک ستان","منت فی","حاج ‌","ایوان کوویچ","انداخ ته","ند اری","اق وام","المل ل","مظ لو","تأ ييد","سالن ‌های","سو می","مار کا","اختتا میه","می‌ بینند","ور یا","می‌ خواند","بود ید","كو چ","ترا کنش","لط مه","و ج","به‌ راحتی","سنگ اپور","عی ار","ساز ندگی","قو اعد","پیامد های","ك ره","ون گ","پاسخ گو","کرو ات","پت روش","هم يشه","ک ورو","خ دای","ن يم","ورزش ‌های","تران ه","خو در","می‌ آورند","اعط ا","پرو سه","می‌ گذارند","زي اد","‌ گذاري","مناظ ره","یک سری","خور شیدی","نه مین","فع لي","ب ام","مگاو ات","قلم داد","قر قی","خد ایی","حس ابی","یاد شده","خ نده","گر گان","دست وری","بازاری ابی","فوری ه","ق اط","اید ئ","مقد مه","صدر نشینی","عمو ما","ن ماند","کاملا ً","خام وش","شری فی","احساس ات","زی بای","تص ادف","مالي ات","تشکی لات","و اتر","انع قاد","تو نس","مع اد","سن گر","م کتب","نو بل","بگوی ید","اسکن اس","8 1","ول ای","سالی ان","تی نگ","فناوری ‌های","روابط‌ عمومی","حقوق ي","‌ داری","بان وی","بی‌ توجهی","ب گیرید","نو کمپ","استان داری","ش ال","روز هاي","پاسخ گویی","ض عی","یو فا","اصفه انی","عس گری","سول س","ار سلان","و بی","ران نده","فرمانده ی","دریا چه","یاز ده","توافق ات","ام ان","برنام ه‌هایی","بازیکنان ش","شعار های","ر ستمی","سی گار","کی انی","د ير","انف جار","بل د","شفی عی","غ را","ن گیرد","اساتی د","بین ‌","رفی عی","هف دهم","لاي حه","راب ط","سیاست گذاری","با شی","سج ادی","تشی یع","گذ راند","مز ایده","سور يه","مار اد","زان و","ناب ود","در های","عل ل","سلط ان","مسأ له","ح ريف","تعقی ب","می عانات","غ زه","تا ش","مل حق","خانوار های","آزاد ي","تک میلی","اس رایی","کرد ی","ب کند","تع ارض","ایر لاین","نزد يک","ک وی","محمد باقر","حزب ‌الله","نی جری","گذاری د","ورا مین","ذ ات","اعتم ادی","بعد از","وف ایی","تدا بیر","ن شده‌اند","اس کان","كوت اه","هم ايش","من ا","ك سی","منصف انه","زاوی ه","ل د","سولس شر","مو عد","9 00","فرو خت","توزي ع","د ه‌","کار م","پنج اه","کرد يم","جنا حی","اتوم بیل","سیستم ‌های","اجتما ع","رفت ه‌اند","غرف ه","ست ایش","هیچ ‌وجه","کاندیدا های","جلو تر","پاسخ ‌گو","بست ن","ر ایج","روز هایی","اسلح ه","خ ستگی","مس دود","هجو م","آن دره","ارو گو","نفت ‌","جرا ئم","آنتو نیو","غیر مستقیم","غفل ت","۵ ۸","تش ریف","افت خاری","داوطل بان","برگزید گان","بل ات","نبود یم","رسید ه‌اند","نام زدی","139 1","غ ریب","اد ارات","پر ز","آور دیم","کری ست","الی ست","فرو شان","ت سلط","اکت شاف","جم ال","‌ی ‌","پس ران","مشک وک","بازي ‌هاي","پذی ریم","ت‌ ا","دل الان","موفقی ت‌های","قایق رانی","ابهام ات","ر شید","بال اتری","انداز د","دکت ری","‌ ناپذیر","خر مشهر","ز بانی","با هنر","مرا د","مک مل","پتروش يمي","رو دری","بنا های","بده کار","سا کت","واج د","چهارد هم","بل اروس","طراح ي","ق ایی","بر ناب","اردو غان","‌ تان","واق عه","صرف ه‌","بوندس لیگا","شایع اتی","ان اری","تاثیر گذاری","می‌توانست یم","ر گ","کي لوگرم","فرمود ند","مار تی","منتشر شده","آمد ه‌اند","تیم م","8 3","نی اورد","بانک ي","شركت ‌هاي","منس جم","ف قره","دید نی","جان بازان","پیمان کاران","ست ری","را فت","گرد هم","جشنوار ه‌های","سي ل","رو ان‌","های م","دست ان","کند ه","ماراد ونا","بن شی","مح له","برناب ئو","لی ان","بی رونی","انتق ام","می‌ کش","می‌خواست ند","مق تدر","م خصوص","ند گي","غر ور","ز را","په لوی","بود ه‌ایم","عملکرد ی","مبار که","۷ ۷","ه‌ داری","مسل ما","کفا شیان","لی بی","مت کی","اه تمام","شی ب","خس روی","ایران‌ خودرو","رؤ سای","۶ ۴","عرب ستانی","کاو ش","آ ستان","فرو شد","کا شان","را ژ","ح کمت","بخ ند","شرکت ‌هاي","در آورد","مرا قب","نوع ي","استعداد های","ز رین","خ شن","غ الب","تو ج","اع داد","ساح ل","بازگرد اندن","کو ار","چم پی","سال‌ جاری","نده ند","بری ل","قطعا ً","ش به‌","خو راکی","کاندید اها","ح کمی","بود ج","تأ خیر","ت ارت","مجموع ه‌های","پیشنهاد ات","ب م","ق دو","مي‌ آيد","‌ ساله","مح اک","لو ای","تح ليل","مقام ‌","ری اضی","تو م","خي ص","تض اد","بیم ه‌ای","صد م","200 8","کشید ند","الکس اندر","اول يه","استف اد","هر کسی","اسی ر","چ ادر","فت نه","منو چهر","کر ه‌ای","پن جه","‌ این","مو م","لز م","انسان ي","روست ای","ندی ده","طبق ات","همسر ش","& #","تخ م‌","بدن سازی","نبود م","نك ته","139 6","ل از","بود جه‌ای","افز ایشی","مست لزم","صحبت ‌هایی","ایستاد گی","حوز ه‌ها","ظ ی","اس لو","اف شا","مت عارف","برای تون","سلی قه","زیر مجموعه","صی انت","افتاد ن","تیم ‌هایی","نی نی","رح مت","عاش ورا","می‌ نویسد","میلیارد تومان","کوتی نیو","دهند گان","ي اران","غلام حسین","قائم‌ مقام","مط هر","صد ام","بی‌ کاری","محاک مه","هزین ه‌ای","مق اطع","گو نی","آثار ش","عبارت ند","غ انی","ده قان","کاست ه","ل شکر","ن اند","یک‌ سری","فیلی پین","تو ازن","دموک رات","قرقی زستان","ارز های","استع لام","شری ک","پائ ولو","مت عادل","نشری ات","سود آوری","ا شرف","‌ گرفتن","رو یا","قرار گاه","رود خانه","سازمان دهی","باز گشته","عن ایت","تو ئی","مي‌ کنم","یک‌ سال","حدی ث","بیماری ‌های","ما دری","فار ابی","آفری قای","نمی‌ خواهم","کا شی","تجر به‌","خانوار ها","كرد يم","بس كت","قضائ ي","ع بادی","درعین ‌حال","۹ ۱","شهرستان ‌ها","صو تی","ب سا","۸ ۴","دا وید","تع ريف","۱۳۹ ۴","بسكت بال","ع نصر","هوش نگ","‌ زده","متولی ان","ناگه انی","ك امل","‌ دستی","مص با","رو مانی","اید ه‌","بر می","ال عین","معی شتی","ئ ن","ف راه","گل‌ گهر","P S","بل ندی","ول ادی","آل وده","کار مزد","هم‌ چنین","ح اف","تن اسب","ند ا","حکو متی","ب ُ","دخ انی","انت ری",". /","مع ارف","عی سی","طب ع","بی د","كار گردان","درآمد ها","سی اوش","ران ندگی","سیام ک","سی ه","دربار ه‌ي","خ زان","یاد م","هزين ه‌هاي","ز مز","دید گاه‌های","برخور داری","ستار ه‌های","رو نا","نشست ‌های","آمو خت","فت حی","وال ورده","شهرد اري","آ درس","کار دی","راتی ک","شناخت ه‌شده","کن شی","نی کو","۴ ۲","خبر ي","تيم ‌هاي","ور نتی","20 00","سی مرغ","اشتبا هی","تا سیسات","لو ي","خور شید","جزیی ات","د لم","مل و","ژ اوی","خو شن","به‌ همین‌","منط بق","ارزي ابي","ب خواهم","دیپلم ات","ح وض","رک اب","پیگیری ‌های","شورا های","جست‌و جو","ترانزی ت","غی را","گل‌ محمدی","ر جایی","فرهنگ سرای","واگذار ي","ک وین","من های","مسل ط","وق ایع","۱۵ ۰","گفت‌و ‌گو","ك ید","مي‌ کنيم","سیاست ی","مق اي","ب کار","سر ي","ص اف","اما می","مب ني","باي جان","علمی ه","نی اید","میر زایی","ب فرست","زنی ت","صدا قت","ش مش","ست د","گرد ید","ي‌ که","شیو ه‌های","رشد ی","شه يد","هم وار","فر قی","یک پارچه","سال روز","همین طور","ص مد","آبان ‌ماه","نا کی","پروی ن","فیلمس از","ب دو","ك می","ك يل","اخ طار","رسيد ن","ن اقص","تص رف","غی اب","ساخت ‌و","تل فیق","طال قانی","مرا کش","ح ول","منتظ ری","ش جریان","خواه ر","د ایر","اس بی","تر غیب","بی‌ سابقه","چار ه‌ای","! »","ب طور","ال جزایر","کن وان","تئ وری","انو ش","ت ود","پاس خی","ص یر","کشاور زي","بیم ه‌","يک ‌","تع می","نق دي","نکت ه‌ای","مستق يم","مکتو ب","ن مانده","تما شاخ","اتلتیکو مادرید","پی رو","ي اي","آذر بايجان","‌های شان","مجه ز","س حر","کر مانی","آی ت‌ا","است وار","مذاکره‌ کننده","ب بینم","تارت ار","رت به‌","ساي ت","بی ایی","وی س","هفت ه‌ای","۸ ۶","انتق ادی","را ث","غیر ه","مح ال","واقع ي","انض باط","مبارز ات","گل زنان","ن ما","خو شی","پذ ي","غ دیر","دانش‌ بنیان","جه ت‌","اح س","پذیر ند","دان مارک","بررسی ‌ها","وي ل","س عي","صورت‌ گرفته","باز بینی","ه‌ گذاری","ب در","دو ام","لیگ ‌","جام‌ جم","کرد ه‌","هاش مي",
[...]
